[PAD] 0
[unused1] 1
[unused2] 2
[unused3] 3
[unused4] 4
[unused5] 5
[unused6] 6
[unused7] 7
[unused8] 8
[unused9] 9
[unused10] 10
[unused11] 11
[unused12] 12
[unused13] 13
[unused14] 14
[unused15] 15
[unused16] 16
[unused17] 17
[unused18] 18
[unused19] 19
[unused20] 20
[unused21] 21
[unused22] 22
[unused23] 23
[unused24] 24
[unused25] 25
[unused26] 26
[unused27] 27
[unused28] 28
[unused29] 29
[unused30] 30
[unused31] 31
[unused32] 32
[unused33] 33
[unused34] 34
[unused35] 35
[unused36] 36
[unused37] 37
[unused38] 38
[unused39] 39
[unused40] 40
[unused41] 41
[unused42] 42
[unused43] 43
[unused44] 44
[unused45] 45
[unused46] 46
[unused47] 47
[unused48] 48
[unused49] 49
[unused50] 50
[unused51] 51
[unused52] 52
[unused53] 53
[unused54] 54
[unused55] 55
[unused56] 56
[unused57] 57
[unused58] 58
[unused59] 59
[unused60] 60
[unused61] 61
[unused62] 62
[unused63] 63
[unused64] 64
[unused65] 65
[unused66] 66
[unused67] 67
[unused68] 68
[unused69] 69
[unused70] 70
[unused71] 71
[unused72] 72
[unused73] 73
[unused74] 74
[unused75] 75
[unused76] 76
[unused77] 77
[unused78] 78
[unused79] 79
[unused80] 80
[unused81] 81
[unused82] 82
[unused83] 83
[unused84] 84
[unused85] 85
[unused86] 86
[unused87] 87
[unused88] 88
[unused89] 89
[unused90] 90
[unused91] 91
[unused92] 92
[unused93] 93
[unused94] 94
[unused95] 95
[unused96] 96
[unused97] 97
[unused98] 98
[unused99] 99
[UNK] 100
[CLS] 101
[SEP] 102
[MASK] 103
<S> 104
<T> 105
! 106
" 107
# 108
$ 109
% 110
& 111
' 112
( 113
) 114
* 115
+ 116
, 117
- 118
. 119
/ 120
0 121
1 122
2 123
3 124
4 125
5 126
6 127
7 128
8 129
9 130
: 131
; 132
< 133
= 134
> 135
? 136
@ 137
[ 138
\ 139
] 140
^ 141
_ 142
a 143
b 144
c 145
d 146
e 147
f 148
g 149
h 150
i 151
j 152
k 153
l 154
m 155
n 156
o 157
p 158
q 159
r 160
s 161
t 162
u 163
v 164
w 165
x 166
y 167
z 168
{ 169
| 170
} 171
~ 172
£ 173
¤ 174
¥ 175
§ 176
© 177
« 178
® 179
° 180
± 181
² 182
³ 183
µ 184
· 185
¹ 186
º 187
» 188
¼ 189
× 190
ß 191
æ 192
÷ 193
ø 194
đ 195
ŋ 196
ɔ 197
ə 198
ɡ 199
ʰ 200
ˇ 201
ˈ 202
ˊ 203
ˋ 204
ˍ 205
ː 206
˙ 207
˚ 208
ˢ 209
α 210
β 211
γ 212
δ 213
ε 214
η 215
θ 216
ι 217
κ 218
λ 219
μ 220
ν 221
ο 222
π 223
ρ 224
ς 225
σ 226
τ 227
υ 228
φ 229
χ 230
ψ 231
ω 232
а 233
б 234
в 235
г 236
д 237
е 238
ж 239
з 240
и 241
к 242
л 243
м 244
н 245
о 246
п 247
р 248
с 249
т 250
у 251
ф 252
х 253
ц 254
ч 255
ш 256
ы 257
ь 258
я 259
і 260
ا 261
ب 262
ة 263
ت 264
د 265
ر 266
س 267
ع 268
ل 269
م 270
ن 271
ه 272
و 273
ي 274
۩ 275
ก 276
ง 277
น 278
ม 279
ย 280
ร 281
อ 282
า 283
เ 284
๑ 285
་ 286
ღ 287
ᄀ 288
ᄁ 289
ᄂ 290
ᄃ 291
ᄅ 292
ᄆ 293
ᄇ 294
ᄈ 295
ᄉ 296
ᄋ 297
ᄌ 298
ᄎ 299
ᄏ 300
ᄐ 301
ᄑ 302
ᄒ 303
ᅡ 304
ᅢ 305
ᅣ 306
ᅥ 307
ᅦ 308
ᅧ 309
ᅨ 310
ᅩ 311
ᅪ 312
ᅬ 313
ᅭ 314
ᅮ 315
ᅯ 316
ᅲ 317
ᅳ 318
ᅴ 319
ᅵ 320
ᆨ 321
ᆫ 322
ᆯ 323
ᆷ 324
ᆸ 325
ᆺ 326
ᆻ 327
ᆼ 328
ᗜ 329
ᵃ 330
ᵉ 331
ᵍ 332
ᵏ 333
ᵐ 334
ᵒ 335
ᵘ 336
‖ 337
„ 338
† 339
• 340
‥ 341
‧ 342
  343
‰ 344
′ 345
″ 346
‹ 347
› 348
※ 349
‿ 350
⁄ 351
ⁱ 352
⁺ 353
ⁿ 354
₁ 355
₂ 356
₃ 357
₄ 358
€ 359
℃ 360
№ 361
™ 362
ⅰ 363
ⅱ 364
ⅲ 365
ⅳ 366
ⅴ 367
← 368
↑ 369
→ 370
↓ 371
↔ 372
↗ 373
↘ 374
⇒ 375
∀ 376
− 377
∕ 378
∙ 379
√ 380
∞ 381
∟ 382
∠ 383
∣ 384
∥ 385
∩ 386
∮ 387
∶ 388
∼ 389
∽ 390
≈ 391
≒ 392
≡ 393
≤ 394
≥ 395
≦ 396
≧ 397
≪ 398
≫ 399
⊙ 400
⋅ 401
⋈ 402
⋯ 403
⌒ 404
① 405
② 406
③ 407
④ 408
⑤ 409
⑥ 410
⑦ 411
⑧ 412
⑨ 413
⑩ 414
⑴ 415
⑵ 416
⑶ 417
⑷ 418
⑸ 419
⒈ 420
⒉ 421
⒊ 422
⒋ 423
ⓒ 424
ⓔ 425
ⓘ 426
─ 427
━ 428
│ 429
┃ 430
┅ 431
┆ 432
┊ 433
┌ 434
└ 435
├ 436
┣ 437
═ 438
║ 439
╚ 440
╞ 441
╠ 442
╭ 443
╮ 444
╯ 445
╰ 446
╱ 447
╳ 448
▂ 449
▃ 450
▅ 451
▇ 452
█ 453
▉ 454
▋ 455
▌ 456
▍ 457
▎ 458
■ 459
□ 460
▪ 461
▫ 462
▬ 463
▲ 464
△ 465
▶ 466
► 467
▼ 468
▽ 469
◆ 470
◇ 471
○ 472
◎ 473
● 474
◕ 475
◠ 476
◢ 477
◤ 478
☀ 479
★ 480
☆ 481
☕ 482
☞ 483
☺ 484
☼ 485
♀ 486
♂ 487
♠ 488
♡ 489
♣ 490
♥ 491
♦ 492
♪ 493
♫ 494
♬ 495
✈ 496
✔ 497
✕ 498
✖ 499
✦ 500
✨ 501
✪ 502
✰ 503
✿ 504
❀ 505
❤ 506
➜ 507
➤ 508
⦿ 509
、 510
。 511
〃 512
々 513
〇 514
〈 515
〉 516
《 517
》 518
「 519
」 520
『 521
』 522
【 523
】 524
〓 525
〔 526
〕 527
〖 528
〗 529
〜 530
〝 531
〞 532
ぁ 533
あ 534
ぃ 535
い 536
う 537
ぇ 538
え 539
お 540
か 541
き 542
く 543
け 544
こ 545
さ 546
し 547
す 548
せ 549
そ 550
た 551
ち 552
っ 553
つ 554
て 555
と 556
な 557
に 558
ぬ 559
ね 560
の 561
は 562
ひ 563
ふ 564
へ 565
ほ 566
ま 567
み 568
む 569
め 570
も 571
ゃ 572
や 573
ゅ 574
ゆ 575
ょ 576
よ 577
ら 578
り 579
る 580
れ 581
ろ 582
わ 583
を 584
ん 585
゜ 586
ゝ 587
ァ 588
ア 589
ィ 590
イ 591
ゥ 592
ウ 593
ェ 594
エ 595
ォ 596
オ 597
カ 598
キ 599
ク 600
ケ 601
コ 602
サ 603
シ 604
ス 605
セ 606
ソ 607
タ 608
チ 609
ッ 610
ツ 611
テ 612
ト 613
ナ 614
ニ 615
ヌ 616
ネ 617
ノ 618
ハ 619
ヒ 620
フ 621
ヘ 622
ホ 623
マ 624
ミ 625
ム 626
メ 627
モ 628
ャ 629
ヤ 630
ュ 631
ユ 632
ョ 633
ヨ 634
ラ 635
リ 636
ル 637
レ 638
ロ 639
ワ 640
ヲ 641
ン 642
ヶ 643
・ 644
ー 645
ヽ 646
ㄅ 647
ㄆ 648
ㄇ 649
ㄉ 650
ㄋ 651
ㄌ 652
ㄍ 653
ㄎ 654
ㄏ 655
ㄒ 656
ㄚ 657
ㄛ 658
ㄞ 659
ㄟ 660
ㄢ 661
ㄤ 662
ㄥ 663
ㄧ 664
ㄨ 665
ㆍ 666
㈦ 667
㊣ 668
㎡ 669
㗎 670
一 671
丁 672
七 673
萬 674
万 674
丈 675
三 676
上 677
下 678
不 679
與 680
丐 681
醜 682
丑 682
專 683
且 684
丕 685
世 686
丘 687
丙 688
業 689
叢 690
東 691
絲 692
丞 693
丟 696
両 695
兩 697
嚴 698
並 2400
喪 700
丨 701
個 702
箇 5043
丫 703
中 704
豐 705
丰 705
串 706
臨 707
丶 708
丸 709
丹 710
爲 711
主 712
丼 713
麗 714
舉 715
丿 716
乂 717
乃 718
久 719
麼 720
義 721
之 722
烏 723
乍 724
乎 725
乏 726
樂 727
乒 728
乓 729
喬 730
乖 731
乗 732
乘 733
乙 734
乜 735
九 736
乞 737
也 738
習 739
鄉 740
書 741
乩 742
買 743
亂 744
乳 745
乾 746
亀 747
了 749
瞭 4747
予 750
爭 751
事 752
二 753
於 754
于 754
虧 755
雲 756
云 756
互 757
五 758
井 759
亙 760
亘 760
亞 762
些 763
亜 764
亟 766
亡 767
亢 768
交 769
亥 770
亦 771
產 772
亨 773
畝 774
享 775
京 776
亭 777
亮 778
親 779
亳 780
褻 781
人 782
億 783
什 784
仁 785
仃 786
仄 787
僅 788
僕 789
仆 789
仇 790
讎 790
今 791
介 792
仍 793
從 794
仏 795
侖 796
崙 2306
倉 797
仔 798
仕 799
他 800
仗 801
付 802
仙 803
仝 804
仞 805
仟 806
代 807
令 808
以 809
仨 810
儀 811
們 812
仮 813
仰 814
仲 815
件 816
價 817
价 817
任 818
份 819
仿 820
彷 2513
企 821
伉 822
伊 823
伍 824
伎 825
伏 826
伐 827
休 828
伕 829
衆 830
優 831
夥 832
伙 832
會 833
伝 834
傘 835
偉 836
傳 837
伢 838
傷 839
倫 840
僞 841
佇 842
伯 843
估 844
伴 845
伶 846
伸 847
伺 848
似 849
伽 850
佃 851
但 852
佈 854
位 855
低 856
住 857
佐 858
佑 859
體 860
佔 1304
何 862
佗 863
佘 864
餘 865
余 865
佚 866
佛 867
彿 2517
作 868
佝 869
佞 870
佟 871
你 872
佢 873
傭 874
佣 874
佤 875
僉 876
佩 877
佬 878
佯 879
佰 880
佳 881
併 882
佶 883
佻 884
佼 885
使 886
侃 887
侄 888
來 3341
侈 890
例 891
侍 892
侏 893
侑 894
侗 896
供 897
依 898
俠 899
価 900
侶 901
僥 902
偵 903
側 904
僑 905
儂 906
侮 907
侯 908
侵 909
侷 911
便 912
係 913
促 914
俄 915
俊 916
儁 916
俎 917
俏 918
俐 919
俑 920
俗 921
俘 922
俚 923
保 924
俞 925
俟 926
信 928
儼 929
倆 930
儷 931
俬 932
儉 933
修 934
脩 5561
俯 935
俱 936
俳 937
俸 938
俺 939
俾 940
倌 944
倍 945
倏 946
倒 948
倔 949
倖 950
倘 951
候 952
倚 953
倜 954
借 955
藉 5964
倡 956
値 957
倦 958
倩 959
倪 960
倬 962
倭 963
倶 964
債 965
值 966
傾 967
偃 968
假 969
偈 970
偌 972
偎 973
偏 974
偕 975
做 976
停 977
健 978
偶 981
偷 982
僂 983
偽 984
償 985
傀 986
傅 987
傍 988
傑 3345
備 1906
傚 992
傢 993
傣 994
儻 995
儲 996
儺 997
催 998
傲 1000
傻 1004
働 1007
像 1008
僖 1011
僚 1012
僧 1014
僭 1015
僮 1016
僱 7416
僵 1018
殭 3663
僻 1020
儆 1024
儋 1026
儒 1027
儕 1028
儘 1029
儡 1031
兒 1036
兀 1037
允 1038
元 1039
兄 1040
充 1041
兆 1042
兇 1136
先 1044
光 1045
克 1046
剋 1182
兌 1050
免 1048
児 1049
兔 1052
兗 1053
黨 1054
党 1054
兜 1055
兢 1056
入 1057
內 1079
全 1059
八 1061
公 1062
六 1063
兮 1064
蘭 1065
共 1066
兲 1067
關 1068
興 1069
兵 1070
其 1071
具 1072
典 1073
茲 1074
養 1075
兼 1076
獸 1077
冀 1078
円 1080
冇 1081
岡 1082
冉 1083
冊 1085
再 1086
冏 1087
冒 1088
冕 1089
冗 1090
寫 1091
軍 1092
農 1093
冠 1094
冢 1095
冤 1096
冥 1097
冨 1098
冪 2386
冬 1100
鼕 1100
馮 1101
冰 1102
衝 1103
沖 3762
決 1104
況 1105
冶 1106
冷 1107
凍 1108
冼 1109
冽 1110
冾 1111
淨 1112
悽 1113
淒 3903
準 1114
准 1114
凇 1115
凈 1116
涼 1117
凋 1118
凌 1119
淩 3913
減 1121
湊 1122
凜 1123
凝 1125
幾 1126
几 1126
凡 1127
鳳 1128
処 1129
凪 1130
憑 1131
凱 1132
凰 1133
凳 1135
凶 1136
凸 1137
凹 1138
出 1139
齣 7974
擊 1140
函 1141
鑿 1142
刀 1143
刁 1144
刃 1145
分 1146
切 1147
刈 1148
刊 1149
芻 1150
刎 1151
刑 1152
劃 1153
划 1153
列 1154
劉 1155
則 1156
剛 1157
創 1158
初 1159
刪 1160
判 1161
別 1166
刨 1163
利 1164
彆 2491
刮 1167
颳 7594
到 1168
制 1169
製 6182
刷 1170
券 1171
剎 1172
刺 1173
刻 1174
劊 1175
剁 1176
劑 1177
剃 1178
剉 1180
削 1181
剌 1183
前 1184
剮 1186
劍 1187
剔 1188
剖 1189
剜 1191
剝 1195
剣 1193
剤 1194
劇 1196
剩 1197
剪 1198
副 1199
割 1200
剷 1202
剽 1203
剿 1204
劈 1207
劏 1211
力 1213
勸 1214
辦 1215
功 1216
加 1217
務 1218
劣 1219
動 1220
助 1221
努 1222
劫 1223
劭 1224
勵 1225
勁 1226
勞 1227
労 1228
劵 1229
効 1230
劾 1231
勢 1232
勃 1234
勇 1235
勉 1236
勳 1237
勛 1244
勐 1238
勒 1239
勖 1241
勘 1242
勝 5526
募 1247
勤 1249
勧 1250
勺 1254
勻 1258
勾 1256
勿 1257
包 1259
匆 1260
匈 1261
匍 1262
匐 1263
匕 1264
化 1265
北 1266
匙 1267
匝 1268
匠 1269
匡 1270
匣 1271
匪 1272
匱 1273
匯 3726
匹 1276
區 1277
醫 1278
匾 1279
匿 1280
十 1282
千 1283
韆 7499
卅 1284
升 1285
昇 3205
午 1286
卉 1287
半 1288
卍 1289
華 1290
協 1291
卑 1292
卒 1293
卓 1294
單 1296
賣 1297
南 1298
単 1299
博 1300
卜 1301
蔔 5914
卞 1302
卟 1303
占 1304
卡 1305
盧 1306
滷 1307
鹵 7918
卦 1308
臥 1309
衛 1310
卮 1311
卯 1312
印 1313
危 1314
即 1315
卻 1316
卵 1317
卷 1318
捲 2947
卸 1319
卿 1321
廠 1322
厂 1322
厄 1323
廳 1324
歷 1325
曆 3278
厲 1326
壓 1327
厭 1328
廁 1329
釐 1330
厘 1330
厚 1331
厝 1332
原 1333
廂 1334
厥 1335
廈 1336
廚 1337
廄 1338
廝 1340
厳 1342
去 1343
縣 1344
叄 1345
參 1346
蔘 5916
又 1348
叉 1349
及 1350
友 1351
雙 1352
反 1353
収 1354
發 1355
髮 7773
叔 1356
取 1357
受 1358
變 1359
敘 1360
叛 1361
叟 1362
疊 1363
叡 1364
口 1366
古 1367
句 1368
另 1369
叨 1370
叩 1371
只 1372
隻 7407
祇 4856
叫 1373
召 1374
叭 1375
叮 1376
可 1377
臺 1378
檯 3598
颱 7593
台 1378
叱 1379
史 1380
右 1381
叵 1382
葉 1383
叶 1383
號 1384
司 1385
嘆 1386
歎 3626
叻 1387
叼 1388
嘰 1389
籲 1390
吁 1390
喫 1391
吃 1391
各 1392
吆 1393
合 1394
閤 1394
吉 1395
吊 1396
弔 2470
吋 1397
同 1398
衕 1398
名 1399
後 1400
后 1400
吏 1401
吐 1402
向 1403
嚮 1712
曏 1403
吒 1483
嚇 1405
呂 1406
吖 1407
嗎 1408
君 1409
吝 1410
吞 1411
吟 1412
吠 1413
吡 1414
否 1415
吧 1416
噸 1417
吩 1418
含 1419
聽 1420
吭 1421
吮 1422
啓 1423
吱 1424
吳 1426
吵 1427
吶 1443
吸 1429
吹 1430
吻 1431
吼 1432
吽 1433
吾 1434
呀 1435
呃 1437
呆 1438
呈 1439
告 1440
呋 1441
呎 1442
囈 1444
嘔 1445
唄 1446
員 1447
嗆 1448
嗚 1449
呢 1450
呤 1451
呦 1452
周 1453
週 6867
賙 1453
呱 1454
呲 1455
味 1456
呵 1457
呷 1458
呸 1459
呻 1460
呼 1461
命 1462
咀 1463
咁 1464
咂 1465
咄 1466
咆 1467
咋 1468
和 1469
咎 1470
詠 1471
咐 1472
咒 1473
咔 1474
咕 1475
咖 1476
咗 1477
咘 1478
嚨 1479
咚 1480
嚀 1481
咣 1482
咦 1484
咧 1485
諮 1486
咨 1486
咩 1487
咪 1488
咫 1489
咬 1490
咭 1491
咯 1492
咱 1493
咲 1494
咳 1495
鹹 1496
咸 1496
咻 1497
咽 1498
嚥 1710
咿 1499
哀 1500
品 1501
哂 1502
哄 1503
鬨 1503
哆 1504
哇 1505
哈 1506
哉 1507
哋 1508
哌 1509
響 1510
哎 1511
哏 1512
哐 1513
啞 1514
噠 1515
嗶 1516
譁 1517
嘩 1666
喲 1518
哥 1520
哦 1521
哧 1522
哨 1523
哩 1524
哪 1525
哭 1526
哮 1527
哲 1528
哺 1529
哼 1530
哽 1531
唁 1532
唆 1534
脣 1535
唇 1535
唉 1536
唏 1537
唐 1538
唑 1539
唔 1540
嘮 1541
喚 1542
唧 1543
唬 1544
售 1545
唯 1546
唰 1547
唱 1548
唳 1549
唷 1550
唸 1551
唾 1552
啃 1553
啄 1554
商 1555
啉 1556
啊 1557
問 7309
啕 1560
啖 1561
啜 1562
啟 1564
啡 1565
啤 1566
啥 1567
啦 1568
嘖 1569
啪 1570
啫 1571
嗇 1572
齧 1573
嚙 1573
囉 1574
啱 1575
啲 1576
啵 1577
啶 1578
啷 1579
嘯 1580
啻 1581
啼 1582
啾 1583
喀 1584
喂 1585
餵 7633
喃 1586
善 1587
喆 1588
喇 1589
喉 1590
喊 1591
喋 1592
喎 1593
喏 1594
喔 1595
喘 1596
喙 1597
喜 1599
喝 1600
喟 1601
喧 1602
喰 1607
喱 1608
喳 1610
喵 1611
営 1612
噴 1613
喹 1614
喺 1615
喻 1616
嘍 1617
嗅 1618
嗑 1622
嗒 1623
嗓 1624
嗔 1625
嗖 1626
嗜 1628
嗝 1629
嗟 1630
嗡 1631
嗣 1632
嗤 1633
嗦 1634
嗨 1635
嗪 1636
嗬 1637
嗯 1638
嗰 1639
嗲 1640
噯 1641
嗷 1643
嗽 1644
嘀 1645
嘅 1646
嘈 1648
嘉 1649
嘌 1650
嘎 1652
嘗 2214
噓 1656
嘚 1657
嘛 1658
嘜 1659
嘞 1660
嘟 1661
嘢 1662
嘣 1663
嚶 1664
嘧 1665
嘭 1667
囑 1671
嘲 1672
嘴 1673
嘶 1674
嘸 1675
嘹 1676
嘻 1677
嘿 1678
噁 1679
噌 1680
噎 1681
噔 1683
噗 1684
噙 1685
嚕 1686
噢 1688
噤 1689
器 1690
噩 1691
噪 1692
譟 1692
噬 1693
噱 1694
噶 1696
噹 1698
噻 1699
噼 1700
嚎 1703
嚏 1704
嚐 1705
嚓 1706
嚟 1708
囂 1709
嚷 1714
嚼 1715
囊 1718
囍 1719
囔 1721
囗 1722
囚 1723
四 1724
囝 1725
回 1726
迴 6836
囟 1727
因 1728
囡 1729
團 1730
糰 5141
団 1731
囤 1732
囧 1733
囪 1738
囫 1735
園 1736
困 1737
睏 4711
囲 1739
図 1740
圍 1741
囹 1742
固 1743
國 1744
圖 1745
囿 1746
圃 1747
圄 1748
圓 1749
圈 1750
圏 1753
圜 1758
土 1759
聖 1760
圧 1761
在 1762
圩 1763
圭 1764
地 1765
圳 1766
場 1767
圻 1768
圾 1769
址 1770
坂 1771
均 1772
坊 1773
坍 1774
坎 1775
壞 1776
坐 1777
坑 1778
塊 1779
堅 1780
壇 1781
罈 1781
壩 1782
垻 1782
塢 1783
墳 1784
墜 1785
坡 1786
坤 1787
坦 1788
坨 1789
坪 1790
坯 1791
坳 1792
坵 1793
坷 1794
垂 1795
垃 1796
壟 1797
型 1798
壘 1799
垚 1800
垛 1801
垠 1802
垢 1803
垣 1804
墾 1805
堊 1806
墊 1807
埡 1808
垮 1809
垵 1810
埂 1811
埃 1812
埋 1813
城 1814
埔 1815
埕 1816
埗 1817
域 1818
埠 1819
埤 1820
埵 1821
執 2809
埸 1823
培 1824
基 1825
埼 1826
堀 1827
堂 1828
堃 1829
堆 1831
堇 1832
塹 1833
墮 1834
堙 1835
堡 1836
堤 1837
堪 1838
堯 2216
堰 1840
報 2845
堵 1843
堺 1844
堿 1845
塌 1847
塑 1848
塔 1849
塗 3864
塘 1851
塚 1852
塞 1853
塩 1855
填 1856
塬 1857
塭 1858
塵 2212
塾 1860
墀 1861
境 1862
墅 1863
墉 1864
墒 1866
墓 1867
増 1868
墘 1869
牆 1870
增 1872
墟 1873
墨 1874
墩 1875
墻 1878
壁 1880
壅 1881
壆 1882
壊 1884
壑 1885
壕 1887
壢 1891
壤 1892
士 1894
壬 1895
壯 1896
聲 1898
売 1899
殼 1900
壺 1901
壹 1902
壽 2195
處 1905
変 1907
復 1908
複 6185
覆 6208
夏 1909
夔 1910
夕 1911
外 1912
夙 1913
多 1914
夜 1915
夠 1916
夢 3457
大 1920
天 1921
太 1922
夫 1923
夭 1924
央 1925
夯 1926
失 1927
頭 1928
夷 1929
誇 1930
夸 1930
夾 1931
奪 1932
奐 1934
奄 1935
奇 1936
奈 1937
奉 1938
奮 1939
奎 1940
奏 1941
契 1943
奔 1944
奕 1945
獎 1946
套 1947
奘 1948
奚 1949
奠 1950
奢 1951
奧 1952
奬 1955
女 1957
奴 1958
奶 1959
奸 1960
姦 2006
她 1961
好 1962
如 1963
妃 1964
妄 1965
妝 1966
婦 1967
媽 1968
妊 1969
妍 1970
妒 1971
妓 1972
妖 1973
妘 1974
妙 1975
妞 1977
妣 1978
妤 1979
妥 1980
妨 1981
嫵 1982
嫗 1983
妮 1984
妲 1985
妳 1986
妹 1987
妻 1988
妾 1989
姆 1990
姉 1991
姊 1992
始 1993
姍 2000
姐 1995
姑 1996
姒 1997
姓 1998
委 1999
姚 2001
姜 2002
薑 5952
姝 2003
姣 2004
姥 2005
姨 2007
姪 2008
姫 2009
姬 2010
奼 2011
姻 2012
姿 2013
威 2014
娃 2015
婁 2016
婭 2017
嬈 2018
嬌 2019
娉 2020
娑 2021
娓 2022
娘 2023
孃 2093
娛 2031
娜 2025
娟 2026
娠 2027
娣 2028
娥 2029
娩 2030
媧 2032
嫺 2033
嫻 2078
娶 2034
娼 2035
婀 2036
婆 2038
婉 2039
婊 2040
婕 2041
婚 2042
婢 2043
婧 2045
婪 2046
嬰 2048
嬋 2049
嬸 2050
婷 2051
婺 2052
婿 2053
媒 2054
媚 2055
媛 2056
媞 2057
媲 2059
媳 2060
媾 2062
嫁 2063
嫂 2064
嫉 2065
嫌 2066
嫑 2067
嬪 2068
嫖 2069
嫘 2070
嫚 2071
嫡 2072
嫣 2073
嫦 2074
嫩 2075
嫲 2076
嬅 2079
嬉 2080
嬗 2082
嬛 2083
嬢 2084
嬤 2089
嬴 2088
嬿 2091
孀 2092
子 2094
孑 2095
孔 2096
孕 2097
孖 2098
字 2099
存 2100
孫 2101
孚 2102
孛 2103
孜 2104
孝 2105
孟 2106
孢 2107
季 2108
孤 2109
學 2110
孩 2111
孿 2112
孬 2114
孰 2115
孱 2116
孳 2117
孵 2118
孺 2120
孽 2121
寧 2123
甯 4505
它 2124
牠 4284
宅 2125
宇 2126
守 2127
安 2128
宋 2129
完 2130
宏 2131
宓 2132
宕 2133
宗 2134
官 2135
宙 2136
定 2137
宛 2138
宜 2139
寶 2140
實 2141
実 2142
寵 2143
審 2144
客 2145
宣 2146
室 2147
宥 2148
宦 2149
憲 2150
宮 2151
宰 2153
害 2154
宴 2155
宵 2156
家 2157
宸 2158
容 2159
寬 2160
賓 2161
宿 2162
寂 2163
寄 2164
寅 2165
密 2166
寇 2167
富 2168
寐 2169
寒 2170
寓 2171
寛 2172
寢 2173
寞 2174
察 2175
寡 2176
寥 2178
寨 2181
寮 2185
寰 2186
寸 2189
對 2190
寺 2191
尋 2192
導 2193
対 2194
封 2196
専 2197
射 2198
將 2199
尉 2202
尊 2203
小 2207
少 2208
爾 2209
尕 2210
尖 2211
尚 2213
尤 2215
尬 2217
就 2218
尷 2219
屍 2221
尸 2221
尹 2222
尺 2223
尻 2224
尼 2225
盡 2226
尾 2227
尿 2228
局 2229
屁 2230
層 2231
屄 2232
居 2233
屆 2237
屈 2235
屜 2236
屋 2238
屌 2239
屎 2241
屏 2242
屐 2243
屑 2244
展 2245
屬 2247
屠 2248
屢 2249
履 2252
屯 2254
山 2255
屹 2256
嶼 2257
岀 2258
歲 2259
豈 2260
岌 2261
岐 2262
岑 2263
岔 2264
嶇 2265
崗 2266
峴 2267
岙 2268
嵐 2269
島 2270
巖 2272
岩 2272
岫 2273
岬 2274
嶺 2275
岱 2276
嶽 2277
岳 2277
岷 2278
岸 2279
峇 2280
峋 2281
峒 2282
峙 2283
峽 2284
嶠 2285
崢 2286
巒 2287
峨 2288
峪 2289
峭 2290
峯 2292
峻 2295
崁 2297
嶗 2298
崆 2299
崇 2300
崎 2301
崑 2302
崔 2303
崖 2304
崛 2307
崧 2308
崩 2309
嶄 2310
崴 2311
崽 2312
嵇 2313
嵊 2314
嵋 2315
嵌 2316
嶸 2318
嵩 2319
嵬 2320
嵯 2321
嶂 2322
嶋 2325
嶙 2326
巔 2330
巍 2331
川 2335
州 2336
巡 2337
巢 2338
工 2339
左 2340
巧 2341
巨 2342
鉅 7161
鞏 2343
巫 2344
差 2345
己 2346
已 2347
巳 2348
巴 2349
巷 2350
巻 2351
巽 2352
巾 2353
巿 2354
幣 2355
市 2356
布 2357
帥 2358
帆 2359
師 2360
希 2361
帳 2362
帑 2363
帕 2364
帖 2365
簾 2366
帘 2366
帚 2367
帛 2368
幟 2369
帝 2370
帶 2372
幀 2373
席 2375
蓆 5899
幫 2376
帯 2377
帰 2378
帷 2381
常 2382
幗 2383
帽 2384
幄 2387
幅 2388
幌 2389
幔 2390
幕 2391
幡 2393
幢 2394
幹 2397
干 2397
平 2398
年 2399
幸 2401
幺 2403
幻 2404
幼 2405
幽 2406
廣 2408
广 2408
庁 2409
広 2410
莊 2411
慶 2412
庇 2413
牀 2414
序 2415
廬 2416
庫 2417
應 2418
底 2419
庖 2420
店 2421
廟 2422
庚 2423
府 2424
龐 2425
廢 2426
庠 2427
度 2428
座 2429
庭 2431
庵 2432
菴 2432
庶 2433
康 2434
庸 2435
庹 2436
庾 2437
廃 2440
廉 2442
廊 2443
廓 2444
廖 2445
延 2454
廷 2455
建 2456
廿 2457
開 2458
弁 2459
異 2460
棄 2461
弄 2462
弈 2463
弊 2464
弋 2465
式 2466
弒 2467
弓 2469
引 2471
弗 2472
弘 2473
弛 2474
弟 2475
張 2476
彌 2477
瀰 4116
弦 2478
絃 5174
弧 2479
弩 2480
弭 2481
彎 2482
弱 2483
強 2487
彈 2486
弼 2488
弾 2489
彅 2490
歸 2495
當 2496
錄 2497
彔 2497
彗 2498
彙 2499
彝 2500
形 2501
彤 2502
彥 2504
彧 2505
彩 2506
綵 5208
彪 2507
彫 2508
彬 2509
彭 2510
彰 2511
影 2512
役 2514
徹 2515
彼 2516
往 2518
徵 2519
征 2519
徑 2520
待 2521
徇 2522
很 2523
徉 2524
徊 2525
律 2526
徐 2528
徒 2530
従 2531
徠 2532
得 2533
徘 2534
徙 2535
徜 2536
御 2539
禦 4888
徨 2540
循 2542
徬 2543
微 2544
徳 2545
徴 2546
德 2548
徼 2550
徽 2551
心 2552
必 2553
憶 2554
忌 2555
忍 2556
懺 2557
忐 2558
忑 2559
忒 2560
忖 2561
志 2562
誌 6290
忘 2563
忙 2564
応 2565
忠 2566
忡 2567
忤 2568
憂 2569
忪 2570
快 2571
忱 2572
念 2573
忻 2574
忽 2575
忿 2576
懷 2577
態 2578
慫 2579
悵 2580
愴 2581
怎 2582
怏 2583
怒 2584
怔 2585
怕 2586
怖 2587
怙 2588
憐 2589
思 2590
怠 2591
怡 2592
急 2593
怦 2594
性 2595
怨 2596
怪 2597
怯 2598
怵 2599
總 2600
懟 2601
恁 2602
恃 2603
恆 2608
戀 2605
恍 2606
恐 2607
恕 2609
恙 2610
恚 2611
恢 2612
恣 2613
恤 2614
卹 2614
恥 5459
恨 2616
恩 2617
恪 2618
恫 2619
恬 2620
恭 2621
息 2622
恰 2623
懇 2624
恵 2625
惡 2626
慟 2627
愷 2628
惻 2629
惱 2630
恿 2631
悄 2632
悅 2643
悉 2634
悌 2635
悍 2636
悔 2637
悖 2638
悚 2639
悟 2640
悠 2641
患 2642
您 2644
悩 2645
悪 2646
懸 2647
憫 2648
悱 2649
悲 2650
悴 2651
悶 7315
悸 2654
悻 2655
悼 2656
情 2658
惆 2659
惇 2660
驚 2661
惋 2662
惑 2663
惕 2664
惘 2665
惚 2666
惜 2667
惟 2668
惠 2669
惦 2671
懼 2672
慘 2673
懲 2674
憊 2675
愜 2676
慚 2677
憚 2678
慣 2679
惰 2680
想 2682
惴 2683
惶 2684
惹 2685
惺 2686
愁 2687
愆 2688
愈 2689
癒 4618
愉 2690
愍 2691
意 2692
愕 2693
愚 2694
愛 4263
感 2697
愣 2698
憤 2699
愧 2700
愫 2701
願 2703
愿 2703
慄 3412
慈 2705
慌 2707
慎 2708
懾 2709
慕 2710
慢 2714
慧 2716
慨 2717
慮 5991
慰 2720
慳 2721
慵 2722
慷 2724
慾 2725
憋 2728
憎 2729
憔 2732
憧 2735
憨 2736
憩 2737
憬 2739
憾 2742
懂 2743
懈 2745
懊 2747
懋 2748
懣 2749
懶 2750
懦 2751
懵 2753
懿 2760
戈 2762
戊 2763
戌 2764
戍 2765
戎 2766
戲 2767
成 2768
我 2769
戒 2770
戕 2771
或 2772
戰 2773
戚 2774
慼 2774
戛 2775
戟 2776
戡 2777
戦 2778
截 2779
戩 2780
戮 2781
戳 2784
戴 2785
戶 2787
戸 2788
戻 2789
戾 2790
房 2791
所 2792
扁 2793
扇 2794
扈 2795
扉 2796
手 2797
才 2798
纔 5269
扎 2799
紮 5167
撲 2800
扒 2801
打 2802
扔 2803
払 2804
託 2805
托 2805
扛 2806
扣 2807
釦 7038
扦 2808
擴 2810
捫 2811
掃 2812
揚 2813
扭 2814
扮 2815
扯 2816
擾 2817
扱 2818
扳 2819
扶 2820
批 2821
扼 2822
找 2823
承 2824
技 2825
抄 2826
抉 2827
把 2828
抑 2829
抒 2830
抓 2831
投 2832
抖 2833
抗 2834
折 2835
摺 3045
撫 2836
拋 2837
抜 2838
択 2839
摶 2840
摳 2841
掄 2842
搶 2843
護 2844
抨 2846
披 2847
抬 2848
抱 2849
抵 2850
牴 4292
抹 2851
押 2852
抽 2853
抿 2854
拂 2855
拄 2856
擔 2857
拆 2858
拇 2859
拈 2860
拉 2861
拌 2863
拍 2864
拎 2865
拐 2866
柺 2866
拒 2867
拓 2868
拔 2869
拖 2870
拗 2871
拘 2872
拙 2873
拚 2874
招 2875
拜 2876
擬 2877
拡 2878
攏 2879
揀 2880
擁 2881
攔 2882
擰 2883
撥 2884
擇 2885
括 2886
拭 2887
拮 2888
拯 2889
拱 2890
拳 2891
拴 2892
拷 2893
拼 2894
拽 2895
拾 2896
拿 2897
持 2898
掛 2899
挂 2899
指 2900
挈 2901
按 2902
挎 2903
挑 2904
挖 2905
挙 2906
摯 2907
攣 2908
撾 2909
撻 2910
挾 2911
撓 2912
擋 2913
掙 2914
擠 2915
揮 2916
挨 2917
捱 2946
挪 2918
挫 2919
振 2920
挲 2921
挹 2922
挺 2923
挽 2924
輓 6736
捂 2926
捅 2927
捆 2928
捉 2929
捋 2930
捌 2931
捍 2932
捎 2933
捏 2934
捐 2935
捕 2936
撈 2937
損 2938
撿 2939
換 2940
搗 2941
捧 2942
捨 2943
捩 2944
據 2945
据 2945
捶 2948
捷 2949
捺 2950
捻 2951
掀 2952
掂 2953
掇 2955
授 2956
掉 2957
掌 2958
掏 2959
掐 2960
排 2961
掖 2962
掘 2963
掠 2966
採 7023
探 2968
掣 2969
接 2970
控 2971
推 2972
掩 2973
措 2974
掬 2975
掰 2976
掲 2977
擄 2978
摑 2979
擲 2980
撣 2981
摻 2982
揃 2984
揄 2985
揆 2986
揉 2987
揍 2988
描 2989
提 2990
插 2991
揖 2992
握 2995
揣 2996
揩 2997
揪 2998
揭 2999
援 3001
揶 3002
揸 3003
揹 3004
攬 3005
攙 3006
擱 3007
摟 3008
攪 3009
搏 3011
搐 3012
搓 3013
搔 3014
搖 3031
搜 3017
蒐 5883
搞 3018
搡 3019
搪 3020
搬 3021
搭 3022
搵 3023
攜 3025
搽 3026
摀 3027
摁 3028
攝 3029
擺 3030
襬 6202
擯 3032
攤 3033
摒 3034
摔 3035
摘 3036
摞 3037
摧 3039
摩 3040
摸 3043
摹 3044
撂 3047
撃 3048
撅 3049
撇 3050
撐 3053
撒 3054
撕 3056
撚 3057
撞 3058
撤 3059
撩 3061
撬 3063
播 3064
撮 3065
撰 3066
攆 3068
擷 3069
擼 3070
撼 3072
擀 3074
擂 3076
擅 3078
操 3082
擎 3083
擒 3084
擘 3086
擻 3088
擡 3090
擢 3091
擦 3092
攀 3102
攢 3104
攘 3106
攞 3110
攥 3114
攫 3116
支 3118
收 3119
攸 3120
改 3121
攻 3122
放 3123
政 3124
故 3125
效 3126
敵 3127
敍 3128
敎 3129
敏 3130
救 3131
敕 3132
敖 3133
敗 6571
教 3136
斂 3137
敝 3138
敞 3139
敢 3140
散 3141
敦 3142
敬 3143
數 3144
敲 3145
整 3146
敷 3148
斃 3687
文 3152
齋 3153
斌 3154
斎 3155
斐 3156
斑 3157
斕 3158
鬥 3159
斗 3159
料 3160
斛 3161
斜 3162
斟 3163
斡 3164
斤 3165
斥 3166
斧 3167
斬 3168
斫 3169
斷 3171
斯 3172
新 3173
方 3175
施 3177
旁 3178
旃 3179
旅 3180
旋 3181
鏇 3181
旌 3182
旎 3183
族 3184
旖 3185
旗 3186
無 3187
既 3188
日 3189
旦 3190
舊 3191
旨 3192
早 3193
旬 3194
旭 3195
旮 3196
旱 3197
時 3198
曠 3199
旺 3200
旻 3201
昀 3202
昂 3203
昆 3204
昉 3206
昊 3207
昌 3208
明 3209
昏 3210
易 3211
昔 3212
昕 3213
曇 3214
星 3215
映 3216
春 3217
昧 3218
昨 3219
昭 3220
是 3221
昱 3222
昴 3223
暱 3224
昶 3225
晝 3226
顯 3227
晁 3228
晃 3230
晉 3232
晌 3233
晏 3234
曬 3235
曉 3236
曄 3237
暈 3238
暉 3239
晗 3240
晚 3241
晞 3243
晟 3244
晤 3245
晦 3246
晨 3247
晩 3248
普 3249
景 3250
晰 3251
晴 3252
晶 3253
晷 3254
智 3255
晾 3256
暫 3257
暄 3258
暇 3259
暌 3262
暐 3263
暑 3264
暖 3265
暗 3266
闇 7294
暝 3267
暢 4517
曖 3269
暨 3270
暮 3272
暴 3274
暸 3275
暹 3276
曙 3282
曜 3283
曝 3284
曦 3286
曰 3288
曲 3289
麴 7933
曳 3290
更 3291
曹 3293
曼 3294
曾 3295
替 3296
最 3297
月 3299
有 3300
朋 3301
服 3302
朐 3303
朔 3304
朕 3305
朗 3306
望 3307
朝 3308
期 3309
朦 3310
朧 5532
木 3312
未 3313
末 3314
本 3315
札 3316
朮 3317
術 3318
朱 3319
硃 3319
樸 3320
朴 3320
朵 3321
機 3322
朽 3323
殺 3324
雜 3325
權 3326
杆 3327
桿 3447
杈 3328
杉 3329
李 3330
杏 3331
材 3332
村 3333
杓 3334
杖 3335
杜 3336
杞 3337
束 3338
槓 3339
杠 3339
條 3340
楊 3342
杭 3343
杯 3344
盃 4656
杰 3345
杳 3347
杵 3348
杷 3349
杼 3350
松 3351
鬆 7777
板 3352
闆 7293
極 3353
极 3353
構 3354
枇 3355
枉 3356
枋 3357
析 3358
枕 3359
林 3360
枚 3361
果 3362
枝 3363
樞 3364
棗 3365
槍 3366
楓 3367
梟 3368
枯 3369
枰 3370
枱 3371
枳 3372
架 3373
枷 3374
枸 3375
柄 3376
柏 3377
某 3378
柑 3379
柒 3380
染 3381
柔 3382
柘 3383
柚 3384
櫃 3385
柜 3385
柞 3386
檸 3387
柢 3388
查 3389
柩 3390
柬 3391
柯 3392
柱 3393
柳 3394
柴 3395
柵 3402
査 3397
柿 3398
梔 3399
栃 3400
栄 3401
標 3403
棧 3404
櫛 3405
棟 3406
櫟 3407
欄 3408
樹 3409
栓 3410
棲 3411
栗 3412
校 3413
栩 3414
株 3415
樣 3416
核 3417
覈 3417
根 3418
格 3419
栽 3420
欒 3421
桀 3422
桁 3423
桂 3424
桃 3425
桅 3426
框 3427
案 3428
桉 3429
桌 3430
桎 3431
桐 3432
桑 3433
桓 3434
桔 3435
桜 3436
椏 3437
橈 3438
楨 3439
檔 3440
橋 3441
樺 3442
檜 3443
槳 3444
樁 3445
桶 3446
梁 3448
樑 3558
梅 3449
梆 3450
梏 3451
梓 3452
梗 3453
梢 3456
梧 3458
梨 3459
梭 3460
梯 3461
械 3462
梳 3463
梵 3464
梶 3465
檢 3466
欞 3467
棉 3469
棋 3470
棍 3471
棒 3472
棕 3473
棘 3475
棚 3476
棠 3478
棣 3479
森 3481
棱 3482
棵 3484
棹 3485
棺 3486
槨 3487
椅 3488
椋 3489
植 3490
椎 3491
椒 3492
検 3493
椪 3494
橢 3495
椰 3496
椹 3497
椽 3498
椿 3499
楂 3500
楔 3503
楚 3504
楝 3505
楞 3506
楠 3507
楣 3508
楫 3510
楮 3512
楷 3514
楸 3515
楹 3516
樓 3517
楽 3518
概 3519
欖 3520
榆 3521
櫚 3522
櫸 3523
榔 3524
榕 3525
榖 3526
榛 3527
榜 3528
榨 3529
榫 3530
榭 3531
榮 5783
榱 3533
榴 3534
榷 3535
榻 3536
槁 3537
槃 3538
槌 3540
槎 3542
槐 3543
様 3545
檻 3546
檳 3547
槤 3548
槭 3549
槲 3550
槻 3552
槽 3553
槿 3554
樊 3557
樟 3562
模 3563
権 3565
橫 3566
樫 3567
檣 3568
櫻 3569
樵 3570
樽 3574
樾 3575
橄 3576
橇 3577
橐 3579
橘 3580
橙 3581
橡 3583
櫥 3586
櫓 3587
櫞 3588
檀 3589
檄 3590
檎 3591
檐 3592
檗 3594
檬 3597
欠 3612
次 3613
歡 3614
欣 3615
歐 3616
欲 3617
欸 3618
欺 3619
欽 7171
款 3621
歆 3622
歇 3623
歉 3624
歌 3625
歓 3628
歙 3629
歛 3630
止 3632
正 3633
此 3634
步 3635
武 3636
歧 3637
歩 3638
歪 3639
歯 3640
歳 3642
歴 3643
歹 3646
死 3647
殲 3648
歿 3649
殃 3650
殆 3651
殤 3652
殉 3653
殊 3654
殘 3655
殞 3656
殮 3657
殖 3658
殯 3661
毆 3666
段 3667
殷 3668
殿 3671
毀 3673
燬 3673
譭 3673
轂 3674
毅 3675
毋 3677
母 3678
毎 3679
每 3680
毒 3681
毓 3682
比 3683
畢 3684
毗 3685
毘 3686
毛 3688
氈 3689
毫 3690
毯 3691
毽 3692
氏 3694
氐 3695
民 3696
氓 3697
氣 3698
氖 3699
気 3700
氙 3701
氛 3702
氟 3703
氡 3704
氫 3705
氤 3707
氦 3708
氧 3709
氨 3710
氪 3711
氮 3713
氯 3714
氰 3715
氳 3716
水 3717
氷 3718
永 3719
氹 3720
氾 3721
汀 3722
汁 3723
求 3724
汆 3725
漢 3727
汎 3728
汐 3729
汕 3730
汗 3731
汙 3732
汛 3733
汝 3734
汞 3735
江 3736
池 3737
污 3738
湯 3739
汨 3740
汩 3741
汪 3742
汰 3743
汲 3744
汴 3745
汶 3746
洶 3747
汽 3749
汾 3750
沁 3751
沂 3752
沃 3753
沅 3754
沈 3755
瀋 4103
沉 3756
沌 3757
沏 3758
沐 3759
沒 3766
沓 3761
沙 3763
沛 3764
溝 3765
沢 3767
灃 3768
瀝 3769
淪 3770
滄 3771
滬 3772
沫 3773
沭 3774
沮 3775
沱 3776
河 3777
沸 3778
油 3779
治 3780
沼 3781
沽 3782
沾 3783
霑 7455
沿 3784
泄 3786
泉 3787
泊 3788
泌 3789
泓 3790
法 3791
泗 3792
泛 3793
濘 3794
泠 3795
泡 3796
波 3797
泣 3798
泥 3799
注 3800
註 6263
淚 3801
泫 3802
泮 3803
泯 3804
泰 3805
泱 3806
泳 3807
泵 3808
瀧 3809
瀘 3810
瀉 3811
潑 3812
澤 3813
涇 3814
潔 3815
洄 3816
洋 3817
灑 3818
洗 3819
洙 3820
洛 3821
洞 3822
津 3823
洩 3824
洪 3825
洮 3826
洱 3827
洲 3828
洵 3829
洸 3831
洹 3832
活 3833
窪 3834
洽 3835
派 3836
流 3837
浹 3838
浄 3839
淺 3840
漿 3841
澆 3842
濁 3843
測 3844
濟 3845
瀏 3846
渾 3847
滸 3848
濃 3849
潯 3850
浙 3851
浚 3852
浜 3853
浣 3854
浦 3855
浩 3856
浪 3857
浬 3858
浮 3859
浯 3860
浴 3861
海 3862
浸 3863
涂 3864
涅 3865
消 3867
涉 3868
湧 3869
涌 3869
涎 3870
涓 3871
涔 3872
涕 3873
涙 3874
濤 3875
澇 3876
淶 3877
漣 3878
潿 3879
渦 3880
渙 3881
滌 3882
潤 3883
澗 3884
漲 3885
澀 3886
涪 3887
涮 3888
涯 3889
液 3890
涵 3891
涸 3892
涿 3894
澱 3895
淀 3895
淄 3896
淅 3897
淆 3898
淇 3899
淋 3900
淌 3901
淑 3902
淖 3904
淘 3905
淙 3906
淞 3908
淡 3909
淤 3910
淦 3911
淫 3915
淬 3916
淮 3917
深 3918
淳 3919
淵 3929
混 3921
淹 3922
添 3924
淼 3925
清 3926
済 3927
渉 3928
渋 3930
漬 3931
瀆 3932
漸 3933
漁 3934
滲 3935
渚 3937
渝 3939
渠 3940
渡 3941
渣 3942
渤 3943
渥 3944
溫 3946
渭 3948
港 3949
渲 3950
渴 3951
遊 3952
游 3952
渺 3953
湃 3955
湄 3956
湍 3958
湖 3959
湘 3960
湛 3961
湟 3962
湫 3964
湮 3965
湳 3967
灣 3968
溼 3969
満 3970
潰 3971
濺 3972
溉 3973
溏 3974
源 3975
溜 3977
溟 3979
溢 3980
溥 3981
溧 3982
溪 3983
溯 3985
溱 3986
溴 3987
溶 3988
溺 3989
滁 3991
滂 3992
滅 4127
滇 3995
滋 3996
滑 3998
滓 3999
滔 4000
滕 4001
滙 4002
滾 4003
滝 4004
滯 4005
灩 4006
灧 4006
滿 4007
瀅 4008
濾 4009
濫 4010
灤 4011
濱 4012
灘 4013
滴 4017
漂 4023
漆 4024
漉 4025
漏 4026
漓 4027
灕 4027
演 4028
漕 4029
漠 4030
漩 4033
漪 4034
漫 4035
漯 4037
漱 4038
漳 4040
漾 4042
瀠 4044
瀟 4045
瀲 4046
濰 4047
潘 4050
潛 4052
潞 4053
潟 4054
潢 4055
潦 4057
潧 4058
潭 4059
潮 4060
瀦 4062
潸 4063
潺 4064
潼 4065
澄 4067
澈 4069
澍 4070
澎 4071
瀾 4073
澡 4074
澧 4076
澳 4078
澹 4079
激 4080
濂 4082
瀨 4084
瀕 4085
濕 4086
濛 4088
濠 4090
濡 4091
濬 4094
濮 4095
濯 4096
瀑 4105
瀚 4108
瀛 4109
瀞 4111
瀬 4115
灌 4118
灝 4119
灞 4123
火 4125
灬 4126
燈 4128
灰 4129
靈 4130
竈 4131
灸 4132
灼 4133
災 4135
燦 4136
煬 4137
炁 4138
炅 4139
爐 4140
炊 4141
炎 4142
炒 4143
炔 4144
炕 4145
燉 4146
炙 4147
煒 4148
炫 4149
炬 4150
炭 4151
炮 4152
炯 4153
炳 4154
炷 4155
炸 4156
點 4157
為 4158
煉 4159
鍊 7101
熾 4160
爍 4161
爛 4162
烴 4163
烈 4164
烊 4165
烘 4167
烙 4168
燭 4169
煙 4170
菸 5839
烤 4171
煩 4172
燒 4173
燁 4174
燴 4175
燙 4176
燼 4177
熱 4178
烯 4179
烷 4180
烹 4181
烽 4182
焉 4183
焊 4184
煥 4185
燜 4186
焗 4187
燾 4188
焙 4189
焚 4190
焜 4191
焦 4193
焯 4194
焰 4195
焱 4196
然 4197
焼 4198
煅 4199
煊 4201
煌 4202
煎 4203
煖 4205
煜 4207
煞 4208
煤 4209
煦 4211
照 4212
煨 4213
煮 4215
煲 4216
煸 4217
煽 4218
熄 4219
熊 4220
燻 4221
熏 4221
熒 5786
熔 4223
熙 4224
熟 4225
熠 4226
熨 4227
熬 4228
熵 4230
熹 4231
燃 4234
燄 4235
燊 4238
燎 4239
燔 4241
燕 4242
營 5852
燥 4246
燧 4248
燮 4250
燿 4254
爆 4255
爪 4259
爬 4260
爰 4262
爵 4265
父 4266
爺 4267
爸 4268
爹 4269
爻 4271
爽 4272
片 4275
版 4276
牌 4277
牘 4278
牒 4279
牙 4280
牛 4281
牝 4282
牟 4283
牡 4285
牢 4286
犛 4287
牧 4288
物 4289
牯 4290
牲 4291
牽 4293
特 4294
犧 4295
犀 4297
犁 4298
犄 4299
犢 4300
犍 4301
犒 4302
犬 4305
犯 4306
狀 4307
獷 4308
獁 4309
猶 4310
狂 4312
狄 4313
狽 4314
狎 4315
狐 4316
狒 4317
狗 4318
狙 4319
獰 4320
狠 4321
狡 4322
狩 4323
獨 4324
狹 4325
獅 4326
猙 4327
獄 4328
狸 4329
狼 4331
獵 4333
獼 4334
猖 4335
猗 4336
猛 4338
猜 4339
猝 4340
猥 4341
猩 4342
豬 4343
貓 4344
蝟 4345
獻 4346
猴 4347
猷 4349
猾 4350
猿 4351
獐 4355
獒 4356
獗 4357
獠 4358
獣 4359
獺 4361
獲 5815
獾 4370
玄 4371
率 4372
玉 4373
王 4374
璣 4375
玖 4376
瑪 4377
玟 4378
玠 4379
玥 4380
玩 4381
翫 4381
玫 4382
瑋 4383
環 4384
現 4385
玲 4386
玳 4387
玷 4388
璽 4389
玻 4390
珀 4391
珂 4392
珅 4393
珈 4394
珉 4395
珊 4396
珍 4397
珏 4398
琺 4399
瓏 4400
珙 4401
珞 4402
珠 4403
珣 4404
珥 4405
珩 4406
珪 4407
班 4408
珮 4409
琿 4410
珺 4411
球 4413
琅 4414
理 4415
琇 4416
琉 4417
琊 4418
琍 4419
璉 4420
瑣 4421
琛 4422
琢 4423
琥 4424
琦 4425
琨 4426
琪 4427
琬 4428
琮 4429
琰 4430
琲 4431
琳 4432
琴 4433
琵 4434
琶 4435
瓊 4437
瑀 4438
瑁 4439
瑄 4440
瑕 4442
瑗 4443
瑙 4444
瑚 4445
瑛 4446
瑜 4447
瑞 4448
瑟 4449
瑠 4450
瑤 4457
瑩 5816
瑯 4455
瑰 4456
瑾 4458
璀 4459
璁 4460
璃 4461
璇 4462
璿 4474
璋 4464
瓔 4465
璐 4466
璜 4467
璞 4468
璟 4469
璧 4470
璨 4471
瓚 4477
瓜 4478
瓢 4479
瓣 4480
瓤 4481
瓦 4482
甕 4483
甌 4484
瓴 4485
瓶 4486
瓷 4487
甄 4488
甘 4491
甙 4492
甚 4493
甜 4494
生 4495
産 4497
甥 4498
甦 4499
用 4500
甩 4501
甫 4502
甬 4503
甭 4504
田 4506
由 4507
甲 4508
申 4509
電 4510
男 4511
甸 4512
町 4513
畫 4514
甾 4515
畀 4516
界 4518
畏 4519
畑 4520
畔 4521
留 4522
畜 4523
略 4526
畦 4527
番 4528
畲 4531
畳 4532
疇 4533
畸 4535
畹 4536
畿 4537
疆 4538
疏 4541
疑 4542
疔 4543
癤 4544
療 4545
疙 4546
疚 4547
疝 4548
瘧 4549
瘍 4550
疣 4551
疤 4552
疥 4553
疫 4554
瘡 4555
瘋 4556
皰 4557
疲 4558
疳 4559
疵 4560
疸 4561
疹 4562
疼 4563
疽 4564
疾 4565
痂 4566
病 4567
症 4568
癥 4625
癰 4569
痙 4570
痊 4571
痍 4572
癢 4573
痔 4574
痕 4575
痘 4576
痛 4578
痞 4579
痠 4580
痢 4581
痣 4582
痤 4583
痧 4584
癆 4585
瘓 4586
癇 4587
痰 4588
痱 4589
癡 4590
痹 4591
痺 4592
痼 4593
痿 4594
瘀 4595
瘁 4596
瘻 4600
瘙 4601
瘟 4602
瘠 4603
瘢 4605
瘤 4606
瘦 4607
瘩 4609
癟 4610
癱 4611
瘴 4612
瘸 4613
癮 4614
癌 4617
癖 4619
癜 4620
癩 4621
癬 4624
癲 4626
癸 4631
発 4632
登 4633
白 4635
百 4636
皁 4637
皂 4637
的 4638
皆 4639
皇 4640
皈 4641
皋 4642
皎 4643
皚 4644
皓 4645
皖 4646
皙 4647
皮 4649
皺 4651
皴 4652
皿 4654
盂 4655
盅 4657
盆 4658
盈 4659
益 4660
盎 4661
盞 4662
鹽 4663
監 4664
盒 4665
盔 4666
蓋 4667
盜 4668
盤 4669
盛 4670
盟 4673
盥 4677
盪 4679
目 4680
盯 4681
盱 4682
盲 4683
直 4684
相 4685
盹 4686
盼 4687
盾 4688
省 4689
眈 4690
眉 4691
看 4692
県 4693
眙 4694
眞 4695
真 4696
眠 4697
眥 4698
眨 4699
眩 4700
眯 4701
眶 4702
眷 4703
眸 4704
眺 4705
眼 4706
眾 4707
着 4708
睜 4709
睇 4710
睞 4712
瞼 4713
睛 4714
睡 4717
睢 4718
督 4719
睥 4720
睦 4721
睨 4722
睪 4723
睫 4724
睬 4725
睹 4726
睽 4727
睾 4728
睿 4729
瞄 4730
瞅 4731
瞇 4732
瞋 4733
瞌 4734
瞎 4735
瞑 4736
瞞 4737
瞓 4738
瞟 4740
瞠 4741
瞥 4742
瞧 4743
矚 4744
瞪 4745
瞬 4746
瞰 4748
瞳 4749
瞻 4750
瞿 4752
矇 4753
矍 4754
矗 4755
矛 4757
矜 4758
矢 4759
矣 4760
知 4761
矩 4762
榘 4762
矯 4763
短 4764
矮 4765
石 4767
磯 4768
矽 4769
礬 4770
礦 4771
碼 4772
砂 4773
砌 4774
砍 4775
砒 4776
研 4777
磚 4778
硨 4779
硯 4780
砝 4781
砣 4782
砥 4783
砧 4784
砭 4785
砰 4786
砲 4787
破 4788
砷 4789
砸 4790
礪 4791
砼 4792
礫 4793
礎 4794
硅 4795
硐 4796
硒 4797
碩 4798
硝 4799
硫 4800
硬 4801
確 4802
确 4802
硼 4804
碁 4805
碇 4806
碉 4807
碌 4808
礙 4809
碎 4810
碑 4811
碓 4812
碗 4813
碘 4814
碚 4815
磧 4816
碟 4817
碣 4818
碧 4819
碰 4821
鹼 4822
碳 4823
碴 4824
碾 4827
磁 4828
磅 4829
磊 4830
磋 4831
磐 4832
磕 4833
磡 4835
磨 4836
磬 4837
磲 4839
磷 4840
磺 4841
礁 4842
礡 4845
礴 4849
示 4850
禮 4851
社 4852
祀 4853
祁 4854
祂 4855
祈 4857
祉 4858
禕 4859
祐 4860
祕 4908
祖 4862
祗 4863
祚 4864
祛 4865
祜 4866
祝 4867
神 4868
祟 4869
祠 4870
禰 4871
祥 4872
票 4873
祭 4874
禎 4875
禱 4876
禍 4877
祺 4878
祿 4882
稟 4880
禁 4881
禪 4883
福 4886
禛 4887
禧 4889
禹 4893
禺 4894
離 4895
禽 4896
禾 4897
禿 4901
秀 4899
私 4900
稈 4902
秉 4903
秋 4904
鞦 7497
種 4905
种 4905
科 4906
秒 4907
租 4909
秣 4910
秤 4911
秦 4912
秧 4913
秩 4914
秭 4915
積 4916
稱 4917
秸 4918
移 4919
穢 4920
稀 4921
稅 4925
程 4923
稍 4924
稔 4926
稗 4927
稚 4928
稜 4929
稞 4930
稠 4932
穌 4933
稲 4936
穩 4937
稷 4938
稹 4939
稻 4940
稼 4941
稽 4942
稿 4943
穀 4944
穂 4945
穆 4946
穎 7577
穗 4950
穫 4953
穴 4954
究 4955
窮 4956
穹 4957
空 4958
穿 4959
突 4960
竊 4961
窄 4962
窈 4963
竅 4964
窯 4965
窒 4966
窓 4967
窕 4968
窖 4969
窗 4970
窘 4971
竄 4972
窩 4973
窟 4974
窠 4975
窺 4976
竇 4977
窨 4978
窿 4984
立 4989
豎 4990
站 4991
竜 4992
競 4993
竟 4994
章 4995
竣 4996
童 4997
竭 4998
端 4999
竹 5001
竺 5002
竽 5003
竿 5004
篤 5005
笆 5006
笈 5007
筍 5008
笏 5009
笑 5010
筆 5011
笙 5012
笛 5013
笞 5014
笠 5015
符 5016
笨 5017
第 5018
笹 5019
箋 5020
籠 5021
等 5023
筊 5024
筋 5025
筏 5027
筐 5028
築 5029
筑 5029
筒 5030
答 5031
策 5032
篩 5033
箏 5034
筠 5035
筱 5036
筲 5037
筵 5038
筷 5039
籌 5040
籤 5041
簽 5087
簡 5042
箍 5045
箐 5047
箔 5048
箕 5049
算 5050
箝 5051
管 5052
籮 5053
簫 5054
箭 5055
箱 5056
箴 5057
箸 5058
節 5688
篁 5060
範 5745
篆 5062
篇 5063
簣 5065
簍 5066
篙 5067
篝 5068
篠 5069
篡 5070
篪 5073
籃 5074
籬 5075
篷 5076
簇 5077
簌 5078
簦 5081
簧 5082
簪 5083
簷 5085
簸 5086
簿 5089
籟 5090
籍 5093
籐 5094
米 5101
類 5102
秈 5103
籽 5104
粄 5105
粉 5106
粑 5107
粒 5108
粕 5109
粗 5110
粘 5111
粟 5112
粵 5113
粥 5114
粧 5115
糞 5116
糧 5117
粱 5118
粲 5119
粳 5120
粹 5122
粼 5123
糉 5124
精 5125
粿 5126
糅 5127
糊 5128
餈 5129
糕 5130
糖 5131
糗 5132
糙 5133
糜 5134
糟 5136
糠 5137
糬 5139
糯 5140
糸 5142
系 5143
繫 5258
糾 5272
紀 5279
紂 5274
約 5276
紅 5273
紉 5280
紊 5150
紋 5292
納 5287
紐 5294
紓 5295
純 5283
紗 5285
紘 5157
紙 5291
級 5277
紛 5290
紜 5282
素 5162
紡 5293
索 5164
緊 5165
紫 5166
累 5168
細 5301
紳 5300
紹 5305
紺 5297
終 5303
組 5299
絆 5304
経 5177
結 5310
絕 5318
絞 5319
絡 5317
絢 5315
給 5314
絨 5309
絮 5185
統 5320
絳 5316
絵 5189
絶 5190
絹 5322
綁 5308
綏 5324
綑 5194
經 5307
継 5196
続 5197
綜 5341
綠 5344
綢 5339
綦 5201
綫 5202
綬 5337
維 5335
綱 5286
網 5381
綴 5345
綸 5289
綺 5331
綻 5342
綽 5333
綾 5329
綿 5336
緋 5332
総 5217
緑 5218
緒 5328
緘 5346
線 5296
緝 5351
緞 5352
締 5354
緣 5357
編 5356
緩 5353
緬 5347
緯 5281
練 5298
緹 5349
緻 5232
縁 5233
縄 5234
縈 5853
縛 5359
縝 5360
縫 5361
縮 5367
縱 5288
縴 5242
縷 5355
績 5327
繁 5246
繃 5338
繆 5368
繇 5249
繋 5250
織 5302
繕 5370
繚 5369
繞 5312
繡 5323
繩 5334
繪 5313
繭 5753
繳 5373
繹 5306
繼 5326
繽 5364
纂 5264
續 5330
纍 5266
纏 5362
纓 5366
纖 5275
纜 5348
紈 5278
紕 5284
絝 5311
綃 5321
絛 5325
綳 5338
綣 5340
綰 5343
緲 5350
縉 5358
縊 5363
縹 5365
繮 5371
繾 5372
缸 5374
缺 5375
缽 5376
罌 5377
罄 5378
罐 5380
罔 5382
罕 5383
羅 5384
罰 5385
罡 5386
罷 5387
罩 5388
罪 5389
置 5390
署 5392
罵 7733
罹 5395
羈 5396
羊 5399
羌 5400
美 5401
羔 5402
羚 5403
羞 5404
羥 5405
羨 5406
羣 5408
羧 5410
羯 5413
羲 5414
羸 5415
羹 5416
羽 5417
羿 5418
翁 5419
翅 5420
翊 5421
翌 5422
翎 5423
翔 5425
翹 5426
翟 5427
翠 5428
翡 5429
翦 5430
翩 5431
翰 5432
翱 5433
翳 5434
翻 5436
翼 5437
耀 5438
老 5439
考 5440
耄 5441
者 5442
耆 5443
耋 5444
而 5445
耍 5446
耐 5447
耒 5448
耕 5449
耗 5450
耘 5451
耙 5452
耦 5453
耨 5454
耳 5455
耶 5456
耷 5457
聳 5458
耽 5460
耿 5461
聶 5462
聆 5463
聊 5464
聾 5465
職 5466
聒 5467
聯 5468
聘 5470
聚 5471
聞 7319
聰 5473
聴 5478
聿 5483
肅 5484
肄 5485
肆 5487
肇 5488
肉 5489
肋 5490
肌 5491
肏 5492
肓 5493
肖 5494
肘 5495
肚 5496
肛 5497
肝 5498
腸 5499
股 5500
肢 5501
膚 5502
肥 5503
肩 5504
肪 5505
骯 5506
肯 5507
肱 5508
育 5509
餚 5510
肺 5511
肽 5512
腎 5513
腫 5514
脹 5515
脅 5516
胃 5517
胄 5518
冑 5518
膽 5519
背 5520
胍 5521
胎 5522
胖 5523
胚 5524
胛 5525
胜 5526
胝 5527
胞 5528
胡 5529
鬍 7778
衚 5529
胤 5530
胥 5531
脛 5533
胭 5534
胯 5535
胰 5536
胱 5537
胳 5538
胴 5539
膠 5540
胸 5541
胺 5542
能 5543
脂 5544
脆 5546
脇 5547
脈 5549
脊 5550
膾 5551
髒 5552
臟 5627
臍 5553
腦 5554
膿 5555
脖 5556
脘 5557
腳 5558
脫 5564
脯 5563
脲 5565
脳 5566
臉 5567
脾 5569
腆 5570
腈 5571
臘 5572
腊 5572
腋 5573
醃 5574
腌 5574
腐 5576
腑 5577
腓 5578
腔 5579
腕 5580
腥 5581
腩 5583
齶 5585
腮 5586
腰 5587
腱 5588
腴 5590
腹 5592
腺 5593
膩 5594
靦 5595
騰 5596
腿 5597
膀 5598
膈 5599
膊 5600
膏 5601
臏 5602
膘 5603
膛 5605
膜 5606
膝 5607
膦 5609
膨 5610
膳 5612
膺 5613
羶 5614
膻 5614
臀 5618
臂 5619
臃 5620
臆 5621
臊 5623
臓 5625
臣 5628
臧 5630
自 5632
臬 5633
臭 5634
至 5635
致 5636
臻 5638
臼 5639
臾 5640
舀 5641
舂 5642
舅 5643
輿 5644
舌 5649
舍 5650
舎 5651
舐 5652
舒 5653
舔 5654
舖 5655
舗 5656
舛 5657
舜 5658
舞 5659
舟 5660
航 5661
舫 5662
般 5663
艦 5664
艙 5665
舵 5666
舶 5667
舷 5668
舸 5669
船 5670
舺 5671
舾 5672
艇 5673
艋 5674
艘 5675
艮 5678
良 5679
艱 5680
色 5682
豔 5683
艷 5684
艹 5685
藝 5686
艾 5687
芃 5689
羋 5690
芊 5691
芋 5692
芍 5693
芎 5694
芒 5695
芙 5696
蕪 5697
芝 5698
芡 5699
芥 5700
蘆 5701
芩 5702
芪 5703
芫 5704
芬 5705
芭 5706
芮 5707
芯 5708
花 5709
芳 5710
芷 5711
芸 5712
蕓 5712
芹 5713
芽 5715
芾 5716
蓯 5717
苄 5718
葦 5719
莧 5720
蒼 5721
蘇 5722
囌 5722
苑 5723
苒 5724
苓 5725
苔 5726
薹 5963
苕 5727
苗 5728
苛 5729
苜 5730
苞 5731
苟 5732
苡 5733
苣 5734
若 5735
苦 5736
苫 5737
苯 5738
英 5739
苷 5740
蘋 5741
苹 5741
苻 5742
茁 5743
茂 5744
范 5745
茄 5746
茅 5747
茉 5748
莖 5749
蘢 5750
茗 5751
茜 5752
茨 5754
茫 5755
茬 5756
茭 5757
茯 5758
茱 5759
茴 5761
茵 5762
茶 5763
茸 5764
茹 5765
茼 5766
荀 5767
荃 5768
荊 5769
草 5770
荏 5772
薦 5773
荐 5773
荒 5774
荔 5775
荖 5776
荘 5777
莢 5778
蕎 5779
薈 5780
薺 5781
蕩 5782
葷 5784
滎 5785
蕁 5787
蓀 5788
蔭 5789
廕 5789
藥 5790
葯 5875
荳 5791
荷 5792
荸 5793
荻 5794
荼 5795
荽 5796
蒞 5797
莆 5798
莉 5799
莎 5801
莒 5802
莓 5803
莘 5805
莞 5806
莠 5807
莪 5810
莫 5811
萊 5812
蓮 5813
萵 5814
鶯 5817
莽 5818
莿 5819
菀 5820
菁 5821
菅 5822
菇 5823
菈 5824
菊 5825
菌 5826
菏 5827
菓 5828
菖 5829
菘 5830
菜 5831
菟 5832
菠 5833
菡 5834
菩 5835
菱 5837
菲 5838
菽 5840
萁 5841
萃 5842
萄 5843
萋 5845
萌 5846
萍 5847
萎 5848
萘 5849
蘿 5850
螢 5851
蕭 5854
薩 5855
萩 5856
萱 5858
萸 5860
萼 5861
落 5862
葆 5863
著 5865
葚 5866
葛 5867
葡 5868
董 5869
葩 5871
葫 5872
葬 5873
葭 5874
蔥 5876
葳 5877
葵 5878
葺 5880
蒂 5881
蔣 5882
蒔 5884
蒙 5885
懞 5885
蒜 5886
蒟 5888
蒡 5889
蒨 5890
蒲 5891
蒸 5892
蒹 5893
蒻 5894
蒿 5896
蓁 5897
蓄 5898
蓉 5900
蓑 5902
蓓 5903
蓖 5904
藍 5905
薊 5906
驀 5907
蓬 5908
蓼 5910
蓿 5911
蔑 5912
衊 5912
蔓 5913
蔗 5915
蔚 5917
蔡 5918
蔫 5921
蔬 5922
蔵 5924
薔 5925
藺 5926
蔻 5927
藹 5928
蔽 5929
蕃 5931
蕈 5932
蕉 5933
蕊 5934
蕙 5936
蕤 5937
蕨 5938
蘄 5942
蘊 5943
蕻 5944
蕾 5945
薄 5946
薅 5947
薇 5948
薏 5951
薙 5954
薛 5955
薨 5957
薪 5959
薬 5960
薯 5961
薰 5962
藏 5966
藐 5967
蘚 5968
藕 5969
藜 5970
藤 5972
藩 5974
藻 5976
藿 5977
蘑 5982
蘸 5985
蘼 5986
虎 5988
虜 5989
虐 5990
虔 5992
虛 5994
虞 5997
虢 5999
蟲 6001
虫 6001
虯 6002
蝨 6003
虹 6004
虻 6005
雖 6006
蝦 6007
蝕 6008
蟻 6009
螞 6010
蚊 6011
蚌 6012
蚓 6013
蠶 6014
蚜 6015
蠔 6016
蚝 6016
蚣 6017
蚤 6018
蚩 6019
蚪 6020
蚯 6021
蚱 6022
蚵 6023
蛀 6024
蛆 6025
蛇 6026
蠱 6027
蛋 6028
蠣 6029
蛐 6030
蛔 6031
蛙 6032
蛛 6033
蛟 6034
蛤 6035
蛭 6036
蠻 6037
蟄 6038
螄 6039
蛹 6040
蛻 6053
蛾 6042
蜀 6043
蜂 6044
蜃 6045
蜆 6046
蜇 6047
蜈 6048
蜊 6049
蜍 6050
蜒 6051
蜓 6052
蝸 6054
蜘 6055
蜚 6056
蜜 6057
蠟 6058
蜡 6058
蜢 6059
蜥 6060
蜱 6061
蜴 6062
蜷 6063
蜻 6064
蜿 6065
蠅 6066
蟈 6067
蟬 6068
蝌 6069
蠍 6070
蝎 6070
蝗 6072
蝙 6073
蝠 6075
蝴 6078
蝶 6079
螻 6081
螂 6082
螃 6083
融 6084
蟎 6087
螯 6088
螳 6089
螺 6090
蟀 6091
蟆 6093
蟋 6094
蟑 6096
蟒 6097
蟠 6098
蟹 6101
蟾 6103
蠕 6107
蠛 6108
蠡 6110
蠢 6111
蠹 6115
血 6117
衄 6118
釁 6119
行 6121
衍 6122
銜 6124
街 6125
衙 6126
衞 6129
衡 6130
衢 6131
衣 6132
補 6133
表 6134
錶 7100
衩 6135
衫 6136
襯 6137
袞 6138
衰 6139
衲 6140
衷 6141
衹 6142
衾 6143
衿 6144
袁 6145
袂 6146
襖 6147
嫋 6148
裊 6165
袈 6149
袋 6150
袍 6151
袒 6152
袖 6153
襪 6154
袤 6156
袪 6157
被 6158
襲 6159
袱 6160
裁 6161
裂 6162
裝 6163
襠 6164
裏 7027
裔 6167
裕 6168
裘 6169
裙 6170
裟 6173
裡 6174
褲 6175
裨 6176
裱 6177
裳 6178
裴 6179
裸 6180
裹 6181
裾 6183
褂 6184
褐 6186
褒 6187
褓 6188
褔 6189
褚 6190
褥 6191
褪 6192
褫 6193
褶 6195
襁 6197
襄 6198
襟 6199
西 6205
要 6206
覃 6207
覇 6209
見 6224
規 6226
覓 6227
視 6228
覚 6214
覦 6232
覧 6216
覬 6231
観 6219
覷 6234
覺 6230
覽 6229
觀 6225
覲 6233
角 6235
觴 6236
解 6237
觥 6238
觸 6239
言 6241
訂 6370
計 6369
訊 6380
討 6374
訓 6378
訕 6376
訖 6377
記 6381
訛 6388
訝 6385
訟 6390
訣 6394
訥 6386
訪 6393
設 6392
許 6387
訳 6259
訴 6401
訶 6396
診 6402
証 6264
詆 6403
詐 6400
詔 6405
評 6397
詛 6398
詞 6404
詡 6424
詢 6418
詣 6419
試 6407
詩 6408
詫 6423
詬 6415
詭 6417
詮 6416
詰 6409
話 6413
該 6421
詳 6422
詹 6285
詼 6410
誅 6412
譽 6289
認 6371
誓 6292
誕 6414
誘 6430
語 6427
誠 6411
誡 6425
誣 6426
誤 6428
誥 6429
誦 6433
誨 6431
說 6432
説 6304
読 6305
誰 6443
課 6440
誹 6439
誼 6449
調 6444
諄 6447
談 6448
請 6435
諏 6314
諒 6446
論 6389
諗 6317
諜 6452
諡 6471
諦 6465
諧 6455
諫 6454
諭 6460
諱 6383
諳 6463
諷 6391
諸 6436
諺 6464
諾 6437
謀 6450
謁 6457
謂 6458
謄 6334
謊 6453
謎 6466
謐 6473
謔 6456
謗 6470
謙 6472
講 6382
謝 6468
謠 6469
謨 6467
謬 6477
謹 6474
謾 6475
證 6395
譎 6481
譏 6372
識 6399
譙 6479
譚 6478
譜 6480
警 6356
譬 6357
譯 6406
議 6379
譲 6360
譴 6482
讀 6438
讓 6375
讚 6367
讞 6368
訌 6373
謳 6384
諍 6420
誒 6434
諉 6441
諛 6442
諂 6445
諶 6451
諤 6459
讒 6461
謚 6471
謫 6476
讖 6483
谷 6484
豁 6485
豆 6486
豇 6487
豉 6489
豊 6490
豌 6491
豚 6495
象 6496
豢 6497
豪 6498
豫 6499
豹 6501
豺 6502
貂 6503
貅 6504
貌 6505
貔 6507
貘 6508
貝 6564
貞 6565
負 6566
財 6568
貢 6567
貧 6577
貨 6573
販 6575
貪 6576
貫 6581
責 6569
貯 6580
貰 6521
貳 6582
貴 6586
貶 6578
貸 6587
費 6589
貼 6585
貽 6591
貿 6588
賀 6590
賁 6584
賂 6596
賃 6595
賄 6594
資 6598
賈 6593
賊 6592
賑 6600
賜 6606
賞 6605
賠 6608
賡 6607
賢 6570
賤 6583
賦 6602
質 6574
賬 6572
賭 6603
賴 6609
賺 6611
購 6579
賽 6612
贅 6610
贈 6615
贊 6614
贍 6616
贏 6617
贓 6597
贖 6604
贛 6618
賅 6599
賒 6601
贗 6613
贋 6613
赤 6619
赦 6620
赧 6621
赫 6622
赭 6623
走 6624
赳 6625
赴 6626
趙 6627
趕 6628
起 6629
趁 6630
超 6631
越 6632
趨 6633
趟 6636
趣 6637
足 6639
趴 6640
趵 6641
躉 6642
趺 6643
趾 6644
躍 6645
蹌 6646
跆 6647
跋 6648
跌 6649
跎 6650
跑 6651
蹠 6652
跖 6652
跚 6653
跛 6654
距 6655
跟 6656
跡 6839
跤 6658
跨 6659
跩 6660
跪 6661
路 6662
跳 6663
踐 6664
蹺 6665
躚 6666
跺 6667
躋 6668
踉 6669
踊 6670
躊 6671
踏 6672
踝 6674
踞 6675
踟 6676
踢 6677
踩 6678
蹤 6679
踮 6680
踱 6681
踴 6682
踵 6683
踹 6684
蹂 6685
蹄 6686
蹇 6687
蹈 6688
蹉 6689
蹊 6690
蹋 6691
躡 6692
蹣 6693
蹙 6694
蹟 6695
蹦 6698
蹩 6699
蹬 6700
蹭 6701
蹲 6702
蹴 6703
蹶 6704
蹼 6706
躥 6707
躁 6708
躇 6709
躪 6714
身 6716
躬 6717
軀 6718
躲 6719
躺 6720
車 6756
軋 6757
軌 6758
軒 6759
軟 6763
転 6728
軸 6766
軼 6767
軽 6731
軾 6769
較 6772
載 6770
輒 6773
輔 6774
輕 6768
輛 6775
輝 6778
輟 6780
輩 6777
輪 6762
輯 6782
輸 6783
輻 6781
輾 6786
轄 6785
轅 6784
轆 6787
轉 6760
轍 6788
轎 6771
轟 6764
軛 6761
軻 6765
輦 6776
輥 6779
辛 6789
辜 6790
辭 6791
闢 6792
辟 6792
辣 6793
辨 6795
辯 6796
辮 6797
辰 6801
辱 6802
邊 6804
辺 6805
辻 6806
込 6807
遼 6808
達 6809
遷 6810
迂 6811
迄 6812
迅 6813
過 6814
邁 6815
迎 6816
運 6817
近 6818
返 6819
還 6820
這 6821
進 6822
遠 6823
違 6824
連 6825
遲 6826
迢 6827
迤 6828
迥 6829
迦 6830
邇 6831
迪 6832
迫 6833
迭 6834
述 6835
迷 6837
迸 6838
迺 6840
追 6841
退 6842
送 6843
適 6844
适 6844
逃 6845
逅 6846
逆 6847
選 6848
遜 6849
逍 6850
透 6851
逐 6852
遞 6853
途 6854
逕 6855
逗 6856
通 6858
逛 6859
逝 6860
逞 6861
速 6862
造 6863
逢 6864
逮 6866
逵 6869
逶 6870
逸 6871
邏 6872
逼 6873
逾 6874
遁 6875
遂 6876
遅 6877
遇 6878
遍 6881
遏 6883
遐 6884
遑 6885
遒 6886
道 6887
遺 6890
遙 6898
遛 6892
遢 6896
遣 6897
遨 6899
遭 6901
遮 6902
遴 6904
遵 6905
遶 6906
遽 6911
避 6912
邀 6913
邂 6915
邃 6916
邈 6919
邋 6921
邑 6923
鄧 6924
邕 6925
邛 6926
鄺 6927
邢 6928
那 6929
邦 6930
邨 6931
邪 6932
鄔 6933
郵 6934
邯 6935
邰 6936
邱 6937
邳 6938
邵 6939
邸 6940
鄒 6941
鄴 6942
鄰 6943
鬱 6944
郁 6944
郅 6945
郊 6946
郎 6947
鄭 6948
郜 6949
郝 6950
郡 6951
郢 6952
郤 6953
酈 6954
鄖 6955
部 6956
郫 6957
郭 6958
郴 6959
郷 6961
鄲 6962
都 6963
鄂 6964
鄙 6968
鄞 6969
鄢 6970
鄱 6974
酉 6977
酊 6978
酋 6979
酌 6980
配 6981
酐 6982
酒 6983
酗 6984
酚 6985
醞 6986
酢 6987
酣 6988
酥 6989
酩 6990
酪 6991
酬 6992
酮 6993
酯 6994
酰 6995
醬 6996
酵 6997
酶 6998
酷 6999
酸 7000
釀 7001
醇 7003
醉 7004
醋 7005
醍 7006
醐 7007
醒 7008
醚 7009
醛 7010
醣 7013
醪 7014
醮 7017
醯 7018
醴 7019
醺 7020
采 7023
寀 7023
釉 7024
釋 7025
里 7027
重 7028
野 7029
量 7030
金 7032
釗 7153
釘 7152
釜 7035
針 7151
釣 7157
釧 7155
釵 7158
鈀 7176
鈉 7165
鈍 7162
鈎 7044
鈔 7163
鈕 7175
鈞 7172
鈣 7159
鈦 7160
鈪 7050
鈴 7190
鈺 7177
鈾 7187
鉀 7185
鉄 7055
鉉 7194
鉑 7189
鉗 7179
鉚 7193
鉛 7192
鉤 7174
鑑 7063
鑒 7142
鉻 7207
銀 7213
銃 7066
銅 7198
銑 7203
銓 7205
銖 7202
銘 7208
銬 7196
銭 7074
鑾 7075
銳 7229
銷 7218
銹 7078
鋁 7199
鋅 7227
鋒 7226
鋤 7221
鋪 7215
鋰 7220
鋸 7242
鋼 7167
錐 7238
錘 7237
錚 7209
錠 7240
錢 7178
錦 7239
錨 7232
錫 7234
錮 7235
錯 7231
録 7098
錳 7243
鍋 7222
鍍 7249
鍛 7248
鍥 7244
鍰 7106
鍵 7241
鍺 7108
鍾 7164
鎂 7250
鎊 7257
鎌 7112
鎏 7113
鎔 7258
鎖 7219
鎗 7116
鎚 7117
鎧 7200
鎬 7256
鎮 7252
鎳 7255
鏈 7216
鏖 7123
鏗 7217
鏘 7245
鏞 7261
鏟 7211
鏡 7262
鏢 7259
鏤 7251
鏽 7224
鐘 7132
鐮 7266
鐲 7265
鐳 7264
鐵 7188
鐸 7195
鐺 7197
鑄 7214
鑊 7140
鑣 7267
鑫 7144
鑰 7170
鑲 7268
鑼 7236
鑽 7183
鍼 7151
釺 7154
釩 7156
鈡 7164
鋇 7166
鈑 7168
鈐 7169
鈅 7170
鎢 7173
鈷 7180
鉢 7181
鉞 7182
鉆 7183
鉬 7184
鈿 7186
鑠 7191
鍘 7201
鋌 7204
鎩 7206
鉸 7210
銨 7212
鋯 7223
銼 7225
鐧 7228
銻 7230
錕 7233
鍬 7246
鎘 7253
鐫 7254
鏜 7260
鐐 7263
長 7270
門 7305
閃 7306
閉 7308
閎 7275
閏 7311
閑 7277
閒 7312
間 7313
閔 7314
閘 7316
閡 7324
関 7283
閣 7323
閥 7322
閨 7318
閩 7320
閱 7325
閲 7289
閹 7329
閻 7330
閾 7328
闊 7333
闌 7332
闍 7327
闔 7335
闕 7336
闖 7310
闘 7301
闡 7331
閆 7307
鬧 7317
閭 7321
閬 7326
闋 7334
闞 7337
阜 7338
隊 7339
阡 7340
阪 7341
阮 7342
阱 7343
防 7344
陽 7345
陰 7346
陣 7347
階 7348
阻 7349
阿 7350
陀 7351
陂 7352
附 7353
際 7354
陸 7355
隴 7356
陳 7357
陋 7358
陌 7359
降 7360
限 7361
陝 7362
陛 7363
陞 7365
陟 7366
陡 7367
院 7368
除 7370
隕 7371
險 7372
陪 7373
陲 7375
陵 7377
陶 7378
陷 7379
険 7381
隅 7383
隆 7384
隈 7385
隋 7387
隍 7388
隨 7390
隱 7391
隔 7392
隘 7394
隙 7395
障 7397
隠 7398
隣 7399
隧 7400
隸 7405
隼 7408
雋 7409
難 7410
雀 7411
雁 7412
雄 7413
雅 7414
集 7415
雉 7417
雌 7419
雍 7420
雎 7421
雛 7422
雑 7423
雒 7424
雕 7425
鵰 7869
雞 7883
雨 7433
雪 7434
雯 7435
雰 7436
靂 7438
零 7439
雷 7440
雹 7441
霧 7443
需 7444
霽 7445
霄 7446
霆 7447
震 7448
霈 7449
黴 7450
霊 7451
霍 7452
霎 7453
霏 7454
霓 7456
霖 7457
霜 7458
霞 7459
靄 7461
霰 7462
露 7463
霸 7464
霹 7465
霾 7467
青 7471
靚 7472
靖 7473
靜 7474
靛 7476
非 7478
靠 7479
靡 7480
面 7481
麪 7936
靨 7482
革 7484
靳 7485
靴 7486
靶 7487
靼 7488
鞅 7489
鞋 7490
鞍 7491
韃 7493
鞘 7494
鞠 7495
鞣 7496
鞭 7498
韋 7504
韌 7505
韓 7506
韜 7507
韭 7508
音 7509
韻 7510
韶 7511
頁 7552
頂 7553
頃 7554
項 7555
順 7556
須 7557
頌 7563
預 7564
頑 7559
頒 7562
頓 7561
頗 7567
領 7566
頜 7571
頡 7569
頤 7573
頫 7530
頰 7570
頷 7576
頸 7568
頹 7575
頻 7574
頼 7537
顆 7578
題 7579
額 7583
顎 7580
顏 7582
顔 7543
顛 7585
顧 7560
顫 7588
顱 7565
顴 7590
鬚 7780
頊 7558
潁 7572
顓 7581
顳 7584
顙 7586
顥 7587
顰 7589
風 7599
颯 7600
颶 7601
颼 7602
飄 7603
飆 7604
飈 7605
飛 7607
食 7608
飢 7645
饗 7610
飩 7646
飪 7647
飯 7649
飲 7650
飼 7654
飽 7653
飾 7652
餃 7659
餅 7660
餉 7658
餌 7656
餐 7623
餒 7664
餓 7662
餛 7665
餞 7651
餡 7666
館 7667
餮 7632
餾 7671
饅 7672
饈 7636
饋 7668
饌 7673
饍 7639
饑 7640
饒 7657
饕 7642
饞 7669
飭 7648
飴 7655
餑 7661
饃 7670
首 7674
馗 7675
香 7676
馥 7677
馨 7678
馬 7716
馭 7717
馳 7720
馴 7719
駁 7722
駄 7685
駅 7686
駆 7687
駐 7728
駒 7727
駕 7730
駛 7724
駝 7729
駭 7737
駱 7736
駿 7742
騁 7740
騎 7744
騏 7743
験 7699
騙 7745
騨 7701
騷 7746
驅 7721
驊 7735
驍 7732
驒 7708
驕 7734
驗 7741
驛 7731
驟 7752
驢 7723
驥 7753
馱 7718
駟 7725
駙 7726
駢 7738
驪 7739
騖 7747
驁 7748
騫 7749
驃 7750
騾 7751
驤 7754
骨 7755
骰 7757
骶 7758
骷 7759
骸 7760
骼 7761
髂 7762
髏 7763
髖 7764
髓 7767
高 7770
髦 7771
髪 7772
髯 7774
髻 7775
鬃 7776
鬢 7779
鬟 7781
鬣 7783
鬼 7787
魁 7788
魂 7789
魄 7790
魅 7791
魘 7792
魍 7793
魏 7794
魔 7795
魚 7824
魯 7826
魷 7825
鮑 7828
鮨 7801
鮪 7802
鮭 7829
鮮 7831
鯉 7834
鯊 7835
鯖 7807
鯛 7840
鯨 7841
鯰 7839
鯽 7836
鰍 7844
鰓 7842
鰭 7846
鰲 7845
鰻 7849
鰾 7817
鱈 7847
鱉 7848
鱔 7850
鱗 7851
鱷 7843
鱸 7827
鮫 7830
鱘 7832
鰱 7833
鯡 7837
鯤 7838
鳥 7881
鳩 7882
鳴 7885
鳶 7884
鴉 7887
鴕 7893
鴛 7892
鴦 7891
鴨 7890
鴻 7896
鴿 7894
鵑 7898
鵜 7901
鵝 7900
鵡 7902
鵬 7905
鵲 7903
鶘 7907
鶩 7909
鶴 7911
鷗 7886
鷲 7914
鷹 7916
鷺 7915
鸚 7912
鸞 7895
鴇 7888
鴣 7889
鸝 7897
鵠 7899
鵪 7904
鶉 7906
鶻 7908
鷂 7910
鷓 7913
鸛 7917
鹿 7922
麂 7923
麋 7924
麒 7925
麓 7926
麝 7928
麟 7929
麥 7931
麩 7935
麵 7934
麻 7937
麾 7940
黃 7942
黍 7943
黎 7944
黏 7945
黑 7946
黒 7947
黔 7948
默 7949
黛 7950
黜 7951
黝 7952
黠 7954
黯 7956
黿 7958
鼎 7959
鼐 7960
鼓 7961
鼠 7962
鼬 7963
鼴 7964
鼻 7965
鼾 7966
齁 7967
齊 7970
齒 7976
齡 7977
齢 7973
齦 7979
齙 7978
齪 7980
齲 7981
齷 7982
龍 7987
龔 7988
龕 7989
龜 7991
︰ 7992
︱ 7993
︶ 7994
︿ 7995
﹁ 7996
﹂ 7997
﹍ 7998
﹏ 7999
﹐ 8000
﹑ 8001
﹒ 8002
﹔ 8003
﹕ 8004
﹖ 8005
﹗ 8006
﹙ 8007
﹚ 8008
﹝ 8009
﹞ 8010
﹡ 8011
﹣ 8012
！ 8013
＂ 8014
＃ 8015
＄ 8016
％ 8017
＆ 8018
＇ 8019
（ 8020
） 8021
＊ 8022
＋ 8023
， 8024
－ 8025
． 8026
／ 8027
０ 8028
１ 8029
２ 8030
３ 8031
４ 8032
５ 8033
６ 8034
７ 8035
８ 8036
９ 8037
： 8038
； 8039
＜ 8040
＝ 8041
＞ 8042
？ 8043
＠ 8044
［ 8045
＼ 8046
］ 8047
＾ 8048
＿ 8049
｀ 8050
ａ 8051
ｂ 8052
ｃ 8053
ｄ 8054
ｅ 8055
ｆ 8056
ｇ 8057
ｈ 8058
ｉ 8059
ｊ 8060
ｋ 8061
ｌ 8062
ｍ 8063
ｎ 8064
ｏ 8065
ｐ 8066
ｑ 8067
ｒ 8068
ｓ 8069
ｔ 8070
ｕ 8071
ｖ 8072
ｗ 8073
ｘ 8074
ｙ 8075
ｚ 8076
｛ 8077
｜ 8078
｝ 8079
～ 8080
｡ 8081
｢ 8082
｣ 8083
､ 8084
･ 8085
ｯ 8086
ｰ 8087
ｲ 8088
ｸ 8089
ｼ 8090
ｽ 8091
ﾄ 8092
ﾉ 8093
ﾌ 8094
ﾗ 8095
ﾙ 8096
ﾝ 8097
ﾞ 8098
ﾟ 8099
￣ 8100
￥ 8101
👍 8102
🔥 8103
😂 8104
😎 8105
... 8106
yam 8107
10 8108
2017 8109
12 8110
11 8111
2016 8112
20 8113
30 8114
15 8115
06 8116
lofter 8117
##s 8118
2015 8119
by 8120
16 8121
14 8122
18 8123
13 8124
24 8125
17 8126
2014 8127
21 8128
##0 8129
22 8130
19 8131
25 8132
23 8133
com 8134
100 8135
00 8136
05 8137
2013 8138
##a 8139
03 8140
09 8141
08 8142
28 8143
##2 8144
50 8145
01 8146
04 8147
##1 8148
27 8149
02 8150
2012 8151
##3 8152
26 8153
##e 8154
07 8155
##8 8156
##5 8157
##6 8158
##4 8159
##9 8160
##7 8161
29 8162
2011 8163
40 8164
##t 8165
2010 8166
##o 8167
##d 8168
##i 8169
2009 8170
##n 8171
app 8172
www 8173
the 8174
##m 8175
31 8176
##c 8177
##l 8178
##y 8179
##r 8180
##g 8181
2008 8182
60 8183
http 8184
200 8185
qq 8186
##p 8187
80 8188
##f 8189
google 8190
pixnet 8191
90 8192
cookies 8193
tripadvisor 8194
500 8195
##er 8196
##k 8197
35 8198
##h 8199
facebook 8200
2007 8201
2000 8202
70 8203
##b 8204
of 8205
##x 8206
##u 8207
45 8208
300 8209
iphone 8210
32 8211
1000 8212
2006 8213
48 8214
ip 8215
36 8216
in 8217
38 8218
3d 8219
##w 8220
##ing 8221
55 8222
ctrip 8223
##on 8224
##v 8225
33 8226
##の 8227
to 8228
34 8229
400 8230
id 8231
2005 8232
it 8233
37 8234
windows 8235
llc 8236
top 8237
99 8238
42 8239
39 8240
000 8241
led 8242
at 8243
##an 8244
41 8245
51 8246
52 8247
46 8248
49 8249
43 8250
53 8251
44 8252
##z 8253
android 8254
58 8255
and 8256
59 8257
2004 8258
56 8259
vr 8260
##か 8261
5000 8262
2003 8263
47 8264
blogthis 8265
twitter 8266
54 8267
##le 8268
150 8269
ok 8270
2018 8271
57 8272
75 8273
cn 8274
no 8275
ios 8276
##in 8277
##mm 8278
##00 8279
800 8280
on 8281
te 8282
3000 8283
65 8284
2001 8285
360 8286
95 8287
ig 8288
lv 8289
120 8290
##ng 8291
##を 8292
##us 8293
##に 8294
pc 8295
てす 8296
── 8297
600 8298
##te 8299
85 8300
2002 8301
88 8302
##ed 8303
html 8304
ncc 8305
wifi 8306
email 8307
64 8308
blog 8309
is 8310
##10 8311
##て 8312
mail 8313
online 8314
##al 8315
dvd 8316
##ic 8317
studio 8318
##は 8319
##℃ 8320
##ia 8321
##と 8322
line 8323
vip 8324
72 8325
##q 8326
98 8327
##ce 8328
##en 8329
for 8330
##is 8331
##ra 8332
##es 8333
##j 8334
usb 8335
net 8336
cp 8337
1999 8338
asia 8339
4g 8340
##cm 8341
diy 8342
new 8343
3c 8344
##お 8345
ta 8346
66 8347
language 8348
vs 8349
apple 8350
tw 8351
86 8352
web 8353
##ne 8354
ipad 8355
62 8356
you 8357
##re 8358
101 8359
68 8360
##tion 8361
ps 8362
de 8363
bt 8364
pony 8365
atm 8366
##2017 8367
1998 8368
67 8369
##ch 8370
ceo 8371
##or 8372
go 8373
##na 8374
av 8375
pro 8376
cafe 8377
96 8378
pinterest 8379
97 8380
63 8381
pixstyleme3c 8382
##ta 8383
more 8384
said 8385
##2016 8386
1997 8387
mp3 8388
700 8389
##ll 8390
nba 8391
jun 8392
##20 8393
92 8394
tv 8395
1995 8396
pm 8397
61 8398
76 8399
nbsp 8400
250 8401
##ie 8402
linux 8403
##ma 8404
cd 8405
110 8406
hd 8407
##17 8408
78 8409
##ion 8410
77 8411
6000 8412
am 8413
##th 8414
##st 8415
94 8416
##se 8417
##et 8418
69 8419
180 8420
gdp 8421
my 8422
105 8423
81 8424
abc 8425
89 8426
flash 8427
79 8428
one 8429
93 8430
1990 8431
1996 8432
##ck 8433
gps 8434
##も 8435
##ly 8436
web885 8437
106 8438
2020 8439
91 8440
##ge 8441
4000 8442
1500 8443
xd 8444
boss 8445
isbn 8446
1994 8447
org 8448
##ry 8449
me 8450
love 8451
##11 8452
0fork 8453
73 8454
##12 8455
3g 8456
##ter 8457
##ar 8458
71 8459
82 8460
##la 8461
hotel 8462
130 8463
1970 8464
pk 8465
83 8466
87 8467
140 8468
ie 8469
##os 8470
##30 8471
##el 8472
74 8473
##50 8474
seo 8475
cpu 8476
##ml 8477
p2p 8478
84 8479
may 8480
##る 8481
sun 8482
tue 8483
internet 8484
cc 8485
posted 8486
youtube 8487
##at 8488
##ン 8489
##man 8490
ii 8491
##ル 8492
##15 8493
abs 8494
nt 8495
pdf 8496
yahoo 8497
ago 8498
1980 8499
##it 8500
news 8501
mac 8502
104 8503
##てす 8504
##me 8505
##り 8506
java 8507
1992 8508
spa 8509
##de 8510
##nt 8511
hk 8512
all 8513
plus 8514
la 8515
1993 8516
##mb 8517
##16 8518
##ve 8519
west 8520
##da 8521
160 8522
air 8523
##い 8524
##ps 8525
から 8526
##to 8527
1989 8528
logo 8529
htc 8530
php 8531
https 8532
fi 8533
momo 8534
##son 8535
sat 8536
##ke 8537
##80 8538
ebd 8539
suv 8540
wi 8541
day 8542
apk 8543
##88 8544
##um 8545
mv 8546
galaxy 8547
wiki 8548
or 8549
brake 8550
##ス 8551
1200 8552
する 8553
this 8554
1991 8555
mon 8556
##こ 8557
❤2017 8558
po 8559
##ない 8560
javascript 8561
life 8562
home 8563
june 8564
##ss 8565
system 8566
900 8567
##ー 8568
##０ 8569
pp 8570
1988 8571
world 8572
fb 8573
4k 8574
br 8575
##as 8576
ic 8577
ai 8578
leonardo 8579
safari 8580
##60 8581
live 8582
free 8583
xx 8584
wed 8585
win7 8586
kiehl 8587
##co 8588
lg 8589
o2o 8590
##go 8591
us 8592
235 8593
1949 8594
mm 8595
しい 8596
vfm 8597
kanye 8598
##90 8599
##2015 8600
##id 8601
jr 8602
##ey 8603
123 8604
rss 8605
##sa 8606
##ro 8607
##am 8608
##no 8609
thu 8610
fri 8611
350 8612
##sh 8613
##ki 8614
103 8615
comments 8616
name 8617
##のて 8618
##pe 8619
##ine 8620
max 8621
1987 8622
8000 8623
uber 8624
##mi 8625
##ton 8626
wordpress 8627
office 8628
1986 8629
1985 8630
##ment 8631
107 8632
bd 8633
win10 8634
##ld 8635
##li 8636
gmail 8637
bb 8638
dior 8639
##rs 8640
##ri 8641
##rd 8642
##ます 8643
up 8644
cad 8645
##® 8646
dr 8647
して 8648
read 8649
##21 8650
をお 8651
##io 8652
##99 8653
url 8654
1984 8655
pvc 8656
paypal 8657
show 8658
policy 8659
##40 8660
##ty 8661
##18 8662
with 8663
##★ 8664
##01 8665
txt 8666
102 8667
##ba 8668
dna 8669
from 8670
post 8671
mini 8672
ar 8673
taiwan 8674
john 8675
##ga 8676
privacy 8677
agoda 8678
##13 8679
##ny 8680
word 8681
##24 8682
##22 8683
##by 8684
##ur 8685
##hz 8686
1982 8687
##ang 8688
265 8689
cookie 8690
netscape 8691
108 8692
##ka 8693
##～ 8694
##ad 8695
house 8696
share 8697
note 8698
ibm 8699
code 8700
hello 8701
nike 8702
sim 8703
survey 8704
##016 8705
1979 8706
1950 8707
wikia 8708
##32 8709
##017 8710
5g 8711
cbc 8712
##tor 8713
##kg 8714
1983 8715
##rt 8716
##14 8717
campaign 8718
store 8719
2500 8720
os 8721
##ct 8722
##ts 8723
##° 8724
170 8725
api 8726
##ns 8727
365 8728
excel 8729
##な 8730
##ao 8731
##ら 8732
##し 8733
～～ 8734
##nd 8735
university 8736
163 8737
には 8738
518 8739
##70 8740
##ya 8741
##il 8742
##25 8743
pierre 8744
ipo 8745
0020 8746
897 8747
##23 8748
hotels 8749
##ian 8750
のお 8751
125 8752
years 8753
6606 8754
##ers 8755
##26 8756
high 8757
##day 8758
time 8759
##ay 8760
bug 8761
##line 8762
##く 8763
##す 8764
##be 8765
xp 8766
talk2yam 8767
yamservice 8768
10000 8769
coco 8770
##dy 8771
sony 8772
##ies 8773
1978 8774
microsoft 8775
david 8776
people 8777
##ha 8778
1960 8779
instagram 8780
intel 8781
その 8782
##ot 8783
iso 8784
1981 8785
##va 8786
115 8787
##mo 8788
##land 8789
xxx 8790
man 8791
co 8792
ltxsw 8793
##ation 8794
baby 8795
220 8796
##pa 8797
##ol 8798
1945 8799
7000 8800
tag 8801
450 8802
##ue 8803
msn 8804
##31 8805
oppo 8806
##ト 8807
##ca 8808
control 8809
##om 8810
st 8811
chrome 8812
##ure 8813
##ん 8814
be 8815
##き 8816
lol 8817
##19 8818
した 8819
##bo 8820
240 8821
lady 8822
##100 8823
##way 8824
##から 8825
4600 8826
##ko 8827
##do 8828
##un 8829
4s 8830
corporation 8831
168 8832
##ni 8833
herme 8834
##28 8835
ｃｐ 8836
978 8837
##up 8838
##06 8839
ui 8840
##ds 8841
ppt 8842
admin 8843
three 8844
します 8845
bbc 8846
re 8847
128 8848
##48 8849
ca 8850
##015 8851
##35 8852
hp 8853
##ee 8854
tpp 8855
##た 8856
##ive 8857
×× 8858
root 8859
##cc 8860
##ました 8861
##ble 8862
##ity 8863
adobe 8864
park 8865
114 8866
et 8867
oled 8868
city 8869
##ex 8870
##ler 8871
##ap 8872
china 8873
##book 8874
20000 8875
view 8876
##ice 8877
global 8878
##km 8879
your 8880
hong 8881
##mg 8882
out 8883
##ms 8884
ng 8885
ebay 8886
##29 8887
menu 8888
ubuntu 8889
##cy 8890
rom 8891
##view 8892
open 8893
ktv 8894
do 8895
server 8896
##lo 8897
if 8898
english 8899
##ね 8900
##５ 8901
##oo 8902
1600 8903
##02 8904
step1 8905
kong 8906
club 8907
135 8908
july 8909
inc 8910
1976 8911
mr 8912
hi 8913
##net 8914
touch 8915
##ls 8916
##ii 8917
michael 8918
lcd 8919
##05 8920
##33 8921
phone 8922
james 8923
step2 8924
1300 8925
ios9 8926
##box 8927
dc 8928
##２ 8929
##ley 8930
samsung 8931
111 8932
280 8933
pokemon 8934
css 8935
##ent 8936
##les 8937
いいえ 8938
##１ 8939
s8 8940
atom 8941
play 8942
bmw 8943
##said 8944
sa 8945
etf 8946
ctrl 8947
♥yoyo♥ 8948
##55 8949
2025 8950
##2014 8951
##66 8952
adidas 8953
amazon 8954
1958 8955
##ber 8956
##ner 8957
visa 8958
##77 8959
##der 8960
1800 8961
connectivity 8962
##hi 8963
firefox 8964
109 8965
118 8966
hr 8967
so 8968
style 8969
mark 8970
pop 8971
ol 8972
skip 8973
1975 8974
as 8975
##27 8976
##ir 8977
##61 8978
190 8979
mba 8980
##う 8981
##ai 8982
le 8983
##ver 8984
1900 8985
cafe2017 8986
lte 8987
super 8988
113 8989
129 8990
##ron 8991
amd 8992
like 8993
##☆ 8994
are 8995
##ster 8996
we 8997
##sk 8998
paul 8999
data 9000
international 9001
##ft 9002
longchamp 9003
ssd 9004
good 9005
##ート 9006
##ti 9007
reply 9008
##my 9009
↓↓↓ 9010
apr 9011
star 9012
##ker 9013
source 9014
136 9015
js 9016
112 9017
get 9018
force 9019
photo 9020
##one 9021
126 9022
##2013 9023
##ow 9024
link 9025
bbs 9026
1972 9027
goods 9028
##lin 9029
python 9030
119 9031
##ip 9032
game 9033
##ics 9034
##ません 9035
blue 9036
##● 9037
520 9038
##45 9039
page 9040
itunes 9041
##03 9042
1955 9043
260 9044
1968 9045
gt 9046
gif 9047
618 9048
##ff 9049
##47 9050
group 9051
くたさい 9052
about 9053
bar 9054
ganji 9055
##nce 9056
music 9057
lee 9058
not 9059
1977 9060
1971 9061
1973 9062
##per 9063
an 9064
faq 9065
comment 9066
##って 9067
days 9068
##ock 9069
116 9070
##bs 9071
1974 9072
1969 9073
v1 9074
player 9075
1956 9076
xbox 9077
sql 9078
fm 9079
f1 9080
139 9081
##ah 9082
210 9083
##lv 9084
##mp 9085
##000 9086
melody 9087
1957 9088
##３ 9089
550 9090
17life 9091
199 9092
1966 9093
xml 9094
market 9095
##au 9096
##71 9097
999 9098
##04 9099
what 9100
gl 9101
##95 9102
##age 9103
tips 9104
##68 9105
book 9106
##ting 9107
mysql 9108
can 9109
1959 9110
230 9111
##ung 9112
wonderland 9113
watch 9114
10℃ 9115
##ction 9116
9000 9117
mar 9118
mobile 9119
1946 9120
1962 9121
article 9122
##db 9123
part 9124
▲top 9125
party 9126
って 9127
1967 9128
1964 9129
1948 9130
##07 9131
##ore 9132
##op 9133
この 9134
dj 9135
##78 9136
##38 9137
010 9138
main 9139
225 9140
1965 9141
##ong 9142
art 9143
320 9144
ad 9145
134 9146
020 9147
##73 9148
117 9149
pm2 9150
japan 9151
228 9152
##08 9153
ts 9154
1963 9155
##ica 9156
der 9157
sm 9158
##36 9159
2019 9160
##wa 9161
ct 9162
##７ 9163
##や 9164
##64 9165
1937 9166
homemesh 9167
search 9168
##85 9169
##れは 9170
##tv 9171
##di 9172
macbook 9173
##９ 9174
##くたさい 9175
service 9176
##♥ 9177
type 9178
った 9179
750 9180
##ier 9181
##si 9182
##75 9183
##います 9184
##ok 9185
best 9186
##ット 9187
goris 9188
lock 9189
##った 9190
cf 9191
3m 9192
big 9193
##ut 9194
ftp 9195
carol 9196
##vi 9197
１０ 9198
1961 9199
happy 9200
sd 9201
##ac 9202
122 9203
anti 9204
pe 9205
cnn 9206
iii 9207
1920 9208
138 9209
##ラ 9210
1940 9211
esp 9212
jan 9213
tags 9214
##98 9215
##51 9216
august 9217
vol 9218
##86 9219
154 9220
##™ 9221
##fs 9222
##れ 9223
##sion 9224
design 9225
ac 9226
##ム 9227
press 9228
jordan 9229
ppp 9230
that 9231
key 9232
check 9233
##６ 9234
##tt 9235
##㎡ 9236
1080p 9237
##lt 9238
power 9239
##42 9240
1952 9241
##bc 9242
vivi 9243
##ック 9244
he 9245
133 9246
121 9247
jpg 9248
##rry 9249
201 9250
175 9251
3500 9252
1947 9253
nb 9254
##ted 9255
##rn 9256
しています 9257
1954 9258
usd 9259
##t00 9260
master 9261
##ンク 9262
001 9263
model 9264
##58 9265
al 9266
##09 9267
1953 9268
##34 9269
ram 9270
goo 9271
ても 9272
##ui 9273
127 9274
1930 9275
red 9276
##ary 9277
rpg 9278
item 9279
##pm 9280
##41 9281
270 9282
##za 9283
project 9284
##2012 9285
hot 9286
td 9287
blogabstract 9288
##ger 9289
##62 9290
650 9291
##44 9292
gr2 9293
##します 9294
##ｍ 9295
black 9296
electronic 9297
nfc 9298
year 9299
asus 9300
また 9301
html5 9302
cindy 9303
##hd 9304
m3 9305
132 9306
esc 9307
##od 9308
booking 9309
##53 9310
fed 9311
tvb 9312
##81 9313
##ina 9314
mit 9315
165 9316
##いる 9317
chan 9318
192 9319
distribution 9320
next 9321
になる 9322
peter 9323
bios 9324
steam 9325
cm 9326
1941 9327
にも 9328
pk10 9329
##ix 9330
##65 9331
##91 9332
dec 9333
nasa 9334
##ana 9335
icecat 9336
00z 9337
b1 9338
will 9339
##46 9340
li 9341
se 9342
##ji 9343
##み 9344
##ard 9345
oct 9346
##ain 9347
jp 9348
##ze 9349
##bi 9350
cio 9351
##56 9352
smart 9353
h5 9354
##39 9355
##port 9356
curve 9357
vpn 9358
##nm 9359
##dia 9360
utc 9361
##あり 9362
12345678910 9363
##52 9364
rmvb 9365
chanel 9366
a4 9367
miss 9368
##and 9369
##im 9370
media 9371
who 9372
##63 9373
she 9374
girl 9375
5s 9376
124 9377
vera 9378
##して 9379
class 9380
vivo 9381
king 9382
##フ 9383
##ei 9384
national 9385
ab 9386
1951 9387
5cm 9388
888 9389
145 9390
ipod 9391
ap 9392
1100 9393
5mm 9394
211 9395
ms 9396
2756 9397
##69 9398
mp4 9399
msci 9400
##po 9401
##89 9402
131 9403
mg 9404
index 9405
380 9406
##bit 9407
##out 9408
##zz 9409
##97 9410
##67 9411
158 9412
apec 9413
##８ 9414
photoshop 9415
opec 9416
￥799 9417
ては 9418
##96 9419
##tes 9420
##ast 9421
2g 9422
○○ 9423
##ール 9424
￥2899 9425
##ling 9426
##よ 9427
##ory 9428
1938 9429
##ical 9430
kitty 9431
content 9432
##43 9433
step3 9434
##cn 9435
win8 9436
155 9437
vc 9438
1400 9439
iphone7 9440
robert 9441
##した 9442
tcl 9443
137 9444
beauty 9445
##87 9446
en 9447
dollars 9448
##ys 9449
##oc 9450
step 9451
pay 9452
yy 9453
a1 9454
##2011 9455
##lly 9456
##ks 9457
##♪ 9458
1939 9459
188 9460
download 9461
1944 9462
sep 9463
exe 9464
ph 9465
います 9466
school 9467
gb 9468
center 9469
pr 9470
street 9471
##board 9472
uv 9473
##37 9474
##lan 9475
winrar 9476
##que 9477
##ua 9478
##com 9479
1942 9480
1936 9481
480 9482
gpu 9483
##４ 9484
ettoday 9485
fu 9486
tom 9487
##54 9488
##ren 9489
##via 9490
149 9491
##72 9492
b2b 9493
144 9494
##79 9495
##tch 9496
rose 9497
arm 9498
mb 9499
##49 9500
##ial 9501
##nn 9502
nvidia 9503
step4 9504
mvp 9505
00㎡ 9506
york 9507
156 9508
##イ 9509
how 9510
cpi 9511
591 9512
2765 9513
gov 9514
kg 9515
joe 9516
##xx 9517
mandy 9518
pa 9519
##ser 9520
copyright 9521
fashion 9522
1935 9523
don 9524
##け 9525
ecu 9526
##ist 9527
##art 9528
erp 9529
wap 9530
have 9531
##lm 9532
talk 9533
##ek 9534
##ning 9535
##if 9536
ch 9537
##ite 9538
video 9539
1943 9540
cs 9541
san 9542
iot 9543
look 9544
##84 9545
##2010 9546
##ku 9547
october 9548
##ux 9549
trump 9550
##hs 9551
##ide 9552
box 9553
141 9554
first 9555
##ins 9556
april 9557
##ight 9558
##83 9559
185 9560
angel 9561
protected 9562
aa 9563
151 9564
162 9565
x1 9566
m2 9567
##fe 9568
##× 9569
##ho 9570
size 9571
143 9572
min 9573
ofo 9574
fun 9575
gomaji 9576
ex 9577
hdmi 9578
food 9579
dns 9580
march 9581
chris 9582
kevin 9583
##のか 9584
##lla 9585
##pp 9586
##ec 9587
ag 9588
ems 9589
6s 9590
720p 9591
##rm 9592
##ham 9593
off 9594
##92 9595
asp 9596
team 9597
fandom 9598
ed 9599
299 9600
▌♥ 9601
##ell 9602
info 9603
されています 9604
##82 9605
sina 9606
4066 9607
161 9608
##able 9609
##ctor 9610
330 9611
399 9612
315 9613
dll 9614
rights 9615
ltd 9616
idc 9617
jul 9618
3kg 9619
1927 9620
142 9621
ma 9622
surface 9623
##76 9624
##ク 9625
～～～ 9626
304 9627
mall 9628
eps 9629
146 9630
green 9631
##59 9632
map 9633
space 9634
donald 9635
v2 9636
sodu 9637
##light 9638
1931 9639
148 9640
1700 9641
まて 9642
310 9643
reserved 9644
htm 9645
##han 9646
##57 9647
2d 9648
178 9649
mod 9650
##ise 9651
##tions 9652
152 9653
ti 9654
##shi 9655
doc 9656
1933 9657
icp 9658
055 9659
wang 9660
##ram 9661
shopping 9662
aug 9663
##pi 9664
##well 9665
now 9666
wam 9667
b2 9668
からお 9669
##hu 9670
236 9671
1928 9672
##gb 9673
266 9674
f2 9675
##93 9676
153 9677
mix 9678
##ef 9679
##uan 9680
bwl 9681
##plus 9682
##res 9683
core 9684
##ess 9685
tea 9686
5℃ 9687
hktvmall 9688
nhk 9689
##ate 9690
list 9691
##ese 9692
301 9693
feb 9694
4m 9695
inn 9696
ての 9697
nov 9698
159 9699
12345 9700
daniel 9701
##ci 9702
pass 9703
##bet 9704
##nk 9705
coffee 9706
202 9707
ssl 9708
airbnb 9709
##ute 9710
fbi 9711
woshipm 9712
skype 9713
ea 9714
cg 9715
sp 9716
##fc 9717
##www 9718
yes 9719
edge 9720
alt 9721
007 9722
##94 9723
fpga 9724
##ght 9725
##gs 9726
iso9001 9727
さい 9728
##ile 9729
##wood 9730
##uo 9731
image 9732
lin 9733
icon 9734
american 9735
##em 9736
1932 9737
set 9738
says 9739
##king 9740
##tive 9741
blogger 9742
##74 9743
なと 9744
256 9745
147 9746
##ox 9747
##zy 9748
##red 9749
##ium 9750
##lf 9751
nokia 9752
claire 9753
##リ 9754
##ding 9755
november 9756
lohas 9757
##500 9758
##tic 9759
##マ 9760
##cs 9761
##ある 9762
##che 9763
##ire 9764
##gy 9765
##ult 9766
db 9767
january 9768
win 9769
##カ 9770
166 9771
road 9772
ptt 9773
##ま 9774
##つ 9775
198 9776
##fa 9777
##mer 9778
anna 9779
pchome 9780
はい 9781
udn 9782
ef 9783
420 9784
##time 9785
##tte 9786
2030 9787
##ア 9788
g20 9789
white 9790
かかります 9791
1929 9792
308 9793
garden 9794
eleven 9795
di 9796
##おります 9797
chen 9798
309b 9799
777 9800
172 9801
young 9802
cosplay 9803
ちてない 9804
4500 9805
bat 9806
##123 9807
##tra 9808
##ては 9809
kindle 9810
npc 9811
steve 9812
etc 9813
##ern 9814
##｜ 9815
call 9816
xperia 9817
ces 9818
travel 9819
sk 9820
s7 9821
##ous 9822
1934 9823
##int 9824
みいたたけます 9825
183 9826
edu 9827
file 9828
cho 9829
qr 9830
##car 9831
##our 9832
186 9833
##ant 9834
##ｄ 9835
eric 9836
1914 9837
rends 9838
##jo 9839
##する 9840
mastercard 9841
##2000 9842
kb 9843
##min 9844
290 9845
##ino 9846
vista 9847
##ris 9848
##ud 9849
jack 9850
2400 9851
##set 9852
169 9853
pos 9854
1912 9855
##her 9856
##ou 9857
taipei 9858
しく 9859
205 9860
beta 9861
##ませんか 9862
232 9863
##fi 9864
express 9865
255 9866
body 9867
##ill 9868
aphojoy 9869
user 9870
december 9871
meiki 9872
##ick 9873
tweet 9874
richard 9875
##av 9876
##ᆫ 9877
iphone6 9878
##dd 9879
ちてすか 9880
views 9881
##mark 9882
321 9883
pd 9884
##００ 9885
times 9886
##▲ 9887
level 9888
##ash 9889
10g 9890
point 9891
5l 9892
##ome 9893
208 9894
koreanmall 9895
##ak 9896
george 9897
q2 9898
206 9899
wma 9900
tcp 9901
##200 9902
スタッフ 9903
full 9904
mlb 9905
##lle 9906
##watch 9907
tm 9908
run 9909
179 9910
911 9911
smith 9912
business 9913
##und 9914
1919 9915
color 9916
##tal 9917
222 9918
171 9919
##less 9920
moon 9921
4399 9922
##rl 9923
update 9924
pcb 9925
shop 9926
499 9927
157 9928
little 9929
なし 9930
end 9931
##mhz 9932
van 9933
dsp 9934
easy 9935
660 9936
##house 9937
##key 9938
history 9939
##ｏ 9940
oh 9941
##001 9942
##hy 9943
##web 9944
oem 9945
let 9946
was 9947
##2009 9948
##gg 9949
review 9950
##wan 9951
182 9952
##°c 9953
203 9954
uc 9955
title 9956
##val 9957
united 9958
233 9959
2021 9960
##ons 9961
doi 9962
trivago 9963
overdope 9964
sbs 9965
##ance 9966
##ち 9967
grand 9968
special 9969
573032185 9970
imf 9971
216 9972
wx17house 9973
##so 9974
##ーム 9975
audi 9976
##he 9977
london 9978
william 9979
##rp 9980
##ake 9981
science 9982
beach 9983
cfa 9984
amp 9985
ps4 9986
880 9987
##800 9988
##link 9989
##hp 9990
crm 9991
ferragamo 9992
bell 9993
make 9994
##eng 9995
195 9996
under 9997
zh 9998
photos 9999
2300 10000
##style 10001
##ント 10002
via 10003
176 10004
da 10005
##gi 10006
company 10007
i7 10008
##ray 10009
thomas 10010
370 10011
ufo 10012
i5 10013
##max 10014
plc 10015
ben 10016
back 10017
research 10018
8g 10019
173 10020
mike 10021
##pc 10022
##ッフ 10023
september 10024
189 10025
##ace 10026
vps 10027
february 10028
167 10029
pantos 10030
wp 10031
lisa 10032
1921 10033
★★ 10034
jquery 10035
night 10036
long 10037
offer 10038
##berg 10039
##news 10040
1911 10041
##いて 10042
ray 10043
fks 10044
wto 10045
せます 10046
over 10047
164 10048
340 10049
##all 10050
##rus 10051
1924 10052
##888 10053
##works 10054
blogtitle 10055
loftpermalink 10056
##→ 10057
187 10058
martin 10059
test 10060
ling 10061
km 10062
##め 10063
15000 10064
fda 10065
v3 10066
##ja 10067
##ロ 10068
ｗedding 10069
かある 10070
outlet 10071
family 10072
##ea 10073
をこ 10074
##top 10075
story 10076
##ness 10077
salvatore 10078
##lu 10079
204 10080
swift 10081
215 10082
room 10083
している 10084
oracle 10085
##ul 10086
1925 10087
sam 10088
b2c 10089
week 10090
pi 10091
rock 10092
##のは 10093
##ａ 10094
##けと 10095
##ean 10096
##300 10097
##gle 10098
cctv 10099
after 10100
chinese 10101
##back 10102
powered 10103
x2 10104
##tan 10105
1918 10106
##nes 10107
##イン 10108
canon 10109
only 10110
181 10111
##zi 10112
##las 10113
say 10114
##oe 10115
184 10116
##sd 10117
221 10118
##bot 10119
##world 10120
##zo 10121
sky 10122
made 10123
top100 10124
just 10125
1926 10126
pmi 10127
802 10128
234 10129
gap 10130
##vr 10131
177 10132
les 10133
174 10134
▲topoct 10135
ball 10136
vogue 10137
vi 10138
ing 10139
ofweek 10140
cos 10141
##list 10142
##ort 10143
▲topmay 10144
##なら 10145
##lon 10146
として 10147
last 10148
##tc 10149
##of 10150
##bus 10151
##gen 10152
real 10153
eva 10154
##コ 10155
a3 10156
nas 10157
##lie 10158
##ria 10159
##coin 10160
##bt 10161
▲topapr 10162
his 10163
212 10164
cat 10165
nata 10166
vive 10167
health 10168
⋯⋯ 10169
drive 10170
sir 10171
▲topmar 10172
du 10173
cup 10174
##カー 10175
##ook 10176
##よう 10177
##sy 10178
alex 10179
msg 10180
tour 10181
しました 10182
3ce 10183
##word 10184
193 10185
ebooks 10186
r8 10187
block 10188
318 10189
##より 10190
2200 10191
nice 10192
pvp 10193
207 10194
months 10195
1905 10196
rewards 10197
##ther 10198
1917 10199
0800 10200
##xi 10201
##チ 10202
##sc 10203
micro 10204
850 10205
gg 10206
blogfp 10207
op 10208
1922 10209
daily 10210
m1 10211
264 10212
true 10213
##bb 10214
ml 10215
##tar 10216
##のお 10217
##ky 10218
anthony 10219
196 10220
253 10221
##yo 10222
state 10223
218 10224
##ara 10225
##aa 10226
##rc 10227
##tz 10228
##ston 10229
より 10230
gear 10231
##eo 10232
##ade 10233
ge 10234
see 10235
1923 10236
##win 10237
##ura 10238
ss 10239
heart 10240
##den 10241
##ita 10242
down 10243
##sm 10244
el 10245
png 10246
2100 10247
610 10248
rakuten 10249
whatsapp 10250
bay 10251
dream 10252
add 10253
##use 10254
680 10255
311 10256
pad 10257
gucci 10258
mpv 10259
##ode 10260
##fo 10261
island 10262
▲topjun 10263
##▼ 10264
223 10265
jason 10266
214 10267
chicago 10268
##❤ 10269
しの 10270
##hone 10271
io 10272
##れる 10273
##ことか 10274
sogo 10275
be2 10276
##ology 10277
990 10278
cloud 10279
vcd 10280
##con 10281
2～3 10282
##ford 10283
##joy 10284
##kb 10285
##こさいます 10286
##rade 10287
but 10288
##ach 10289
docker 10290
##ful 10291
rfid 10292
ul 10293
##ase 10294
hit 10295
ford 10296
##star 10297
580 10298
##○ 10299
１１ 10300
a2 10301
sdk 10302
reading 10303
edited 10304
##are 10305
cmos 10306
##mc 10307
238 10308
siri 10309
light 10310
##ella 10311
##ため 10312
bloomberg 10313
##read 10314
pizza 10315
##ison 10316
jimmy 10317
##vm 10318
college 10319
node 10320
journal 10321
ba 10322
18k 10323
##play 10324
245 10325
##cer 10326
２０ 10327
magic 10328
##yu 10329
191 10330
jump 10331
288 10332
tt 10333
##ings 10334
asr 10335
##lia 10336
3200 10337
step5 10338
network 10339
##cd 10340
mc 10341
いします 10342
1234 10343
pixstyleme 10344
273 10345
##600 10346
2800 10347
money 10348
★★★★★ 10349
1280 10350
１２ 10351
430 10352
bl 10353
みの 10354
act 10355
##tus 10356
tokyo 10357
##rial 10358
##life 10359
emba 10360
##ae 10361
saas 10362
tcs 10363
##rk 10364
##wang 10365
summer 10366
##sp 10367
ko 10368
##ving 10369
390 10370
premium 10371
##その 10372
netflix 10373
##ヒ 10374
uk 10375
mt 10376
##lton 10377
right 10378
frank 10379
two 10380
209 10381
える 10382
##ple 10383
##cal 10384
021 10385
##んな 10386
##sen 10387
##ville 10388
hold 10389
nexus 10390
dd 10391
##ius 10392
てお 10393
##mah 10394
##なく 10395
tila 10396
zero 10397
820 10398
ce 10399
##tin 10400
resort 10401
##ws 10402
charles 10403
old 10404
p10 10405
5d 10406
report 10407
##360 10408
##ru 10409
##には 10410
bus 10411
vans 10412
lt 10413
##est 10414
pv 10415
##レ 10416
links 10417
rebecca 10418
##ツ 10419
##dm 10420
azure 10421
##365 10422
きな 10423
limited 10424
bit 10425
4gb 10426
##mon 10427
1910 10428
moto 10429
##eam 10430
213 10431
1913 10432
var 10433
eos 10434
なとの 10435
226 10436
blogspot 10437
された 10438
699 10439
e3 10440
dos 10441
dm 10442
fc 10443
##ments 10444
##ik 10445
##kw 10446
boy 10447
##bin 10448
##ata 10449
960 10450
er 10451
##せ 10452
219 10453
##vin 10454
##tu 10455
##ula 10456
194 10457
##∥ 10458
station 10459
##ろ 10460
##ature 10461
835 10462
files 10463
zara 10464
hdr 10465
top10 10466
nature 10467
950 10468
magazine 10469
s6 10470
marriott 10471
##シ 10472
avira 10473
case 10474
##っと 10475
tab 10476
##ran 10477
tony 10478
##home 10479
oculus 10480
im 10481
##ral 10482
jean 10483
saint 10484
cry 10485
307 10486
rosie 10487
##force 10488
##ini 10489
ice 10490
##bert 10491
のある 10492
##nder 10493
##mber 10494
pet 10495
2600 10496
##◆ 10497
plurk 10498
▲topdec 10499
##sis 10500
00kg 10501
▲topnov 10502
720 10503
##ence 10504
tim 10505
##ω 10506
##nc 10507
##ても 10508
##name 10509
log 10510
ips 10511
great 10512
ikea 10513
malaysia 10514
unix 10515
##イト 10516
3600 10517
##ncy 10518
##nie 10519
12000 10520
akb48 10521
##ye 10522
##oid 10523
404 10524
##chi 10525
##いた 10526
oa 10527
xuehai 10528
##1000 10529
##orm 10530
##rf 10531
275 10532
さん 10533
##ware 10534
##リー 10535
980 10536
ho 10537
##pro 10538
text 10539
##era 10540
560 10541
bob 10542
227 10543
##ub 10544
##2008 10545
8891 10546
scp 10547
avi 10548
##zen 10549
2022 10550
mi 10551
wu 10552
museum 10553
qvod 10554
apache 10555
lake 10556
jcb 10557
▲topaug 10558
★★★ 10559
ni 10560
##hr 10561
hill 10562
302 10563
ne 10564
weibo 10565
490 10566
ruby 10567
##ーシ 10568
##ヶ 10569
##row 10570
4d 10571
▲topjul 10572
iv 10573
##ish 10574
github 10575
306 10576
mate 10577
312 10578
##スト 10579
##lot 10580
##ane 10581
andrew 10582
のハイト 10583
##tina 10584
t1 10585
rf 10586
ed2k 10587
##vel 10588
##900 10589
way 10590
final 10591
りの 10592
ns 10593
5a 10594
705 10595
197 10596
##メ 10597
sweet 10598
bytes 10599
##ene 10600
▲topjan 10601
231 10602
##cker 10603
##2007 10604
##px 10605
100g 10606
topapp 10607
229 10608
helpapp 10609
rs 10610
low 10611
14k 10612
g4g 10613
care 10614
630 10615
ldquo 10616
あり 10617
##fork 10618
leave 10619
rm 10620
edition 10621
##gan 10622
##zon 10623
##qq 10624
▲topsep 10625
##google 10626
##ism 10627
gold 10628
224 10629
explorer 10630
##zer 10631
toyota 10632
category 10633
select 10634
visual 10635
##labels 10636
restaurant 10637
##md 10638
posts 10639
s1 10640
##ico 10641
もっと 10642
angelababy 10643
123456 10644
217 10645
sports 10646
s3 10647
mbc 10648
1915 10649
してくたさい 10650
shell 10651
x86 10652
candy 10653
##new 10654
kbs 10655
face 10656
xl 10657
470 10658
##here 10659
4a 10660
swissinfo 10661
v8 10662
▲topfeb 10663
dram 10664
##ual 10665
##vice 10666
3a 10667
##wer 10668
sport 10669
q1 10670
ios10 10671
public 10672
int 10673
card 10674
##ｃ 10675
ep 10676
au 10677
rt 10678
##れた 10679
1080 10680
bill 10681
##mll 10682
kim 10683
３０ 10684
460 10685
wan 10686
##uk 10687
##ミ 10688
x3 10689
298 10690
0t 10691
scott 10692
##ming 10693
239 10694
e5 10695
##3d 10696
h7n9 10697
worldcat 10698
brown 10699
##あります 10700
##vo 10701
##led 10702
##580 10703
##ax 10704
249 10705
410 10706
##ert 10707
paris 10708
##～6 10709
polo 10710
925 10711
##lr 10712
599 10713
##ナ 10714
capital 10715
##hing 10716
bank 10717
cv 10718
1g 10719
##chat 10720
##ｓ 10721
##たい 10722
adc 10723
##ule 10724
2m 10725
##ｅ 10726
digital 10727
hotmail 10728
268 10729
##pad 10730
870 10731
bbq 10732
quot 10733
##ring 10734
before 10735
wali 10736
##まて 10737
mcu 10738
2k 10739
2b 10740
という 10741
costco 10742
316 10743
north 10744
333 10745
switch 10746
##city 10747
##ｐ 10748
philips 10749
##mann 10750
management 10751
panasonic 10752
##cl 10753
##vd 10754
##ping 10755
##rge 10756
alice 10757
##lk 10758
##ましょう 10759
css3 10760
##ney 10761
vision 10762
alpha 10763
##ular 10764
##400 10765
##tter 10766
lz 10767
にお 10768
##ありません 10769
mode 10770
gre 10771
1916 10772
pci 10773
##tm 10774
237 10775
1～2 10776
##yan 10777
##そ 10778
について 10779
##let 10780
##キ 10781
work 10782
war 10783
coach 10784
ah 10785
mary 10786
##ᅵ 10787
huang 10788
##pt 10789
a8 10790
pt 10791
follow 10792
##berry 10793
1895 10794
##ew 10795
a5 10796
ghost 10797
##ション 10798
##wn 10799
##og 10800
south 10801
##code 10802
girls 10803
##rid 10804
action 10805
villa 10806
git 10807
r11 10808
table 10809
games 10810
##cket 10811
error 10812
##anonymoussaid 10813
##ag 10814
here 10815
##ame 10816
##gc 10817
qa 10818
##■ 10819
##lis 10820
gmp 10821
##gin 10822
vmalife 10823
##cher 10824
yu 10825
wedding 10826
##tis 10827
demo 10828
dragon 10829
530 10830
soho 10831
social 10832
bye 10833
##rant 10834
river 10835
orz 10836
acer 10837
325 10838
##↑ 10839
##ース 10840
##ats 10841
261 10842
del 10843
##ven 10844
440 10845
ups 10846
##ように 10847
##ター 10848
305 10849
value 10850
macd 10851
yougou 10852
##dn 10853
661 10854
##ano 10855
ll 10856
##urt 10857
##rent 10858
continue 10859
script 10860
##wen 10861
##ect 10862
paper 10863
263 10864
319 10865
shift 10866
##chel 10867
##フト 10868
##cat 10869
258 10870
x5 10871
fox 10872
243 10873
##さん 10874
car 10875
aaa 10876
##blog 10877
loading 10878
##yn 10879
##tp 10880
kuso 10881
799 10882
si 10883
sns 10884
イカせるテンマ 10885
ヒンクテンマ3 10886
rmb 10887
vdc 10888
forest 10889
central 10890
prime 10891
help 10892
ultra 10893
##rmb 10894
##ような 10895
241 10896
square 10897
688 10898
##しい 10899
のないフロクに 10900
##field 10901
##reen 10902
##ors 10903
##ju 10904
c1 10905
start 10906
510 10907
##air 10908
##map 10909
cdn 10910
##wo 10911
cba 10912
stephen 10913
m8 10914
100km 10915
##get 10916
opera 10917
##base 10918
##ood 10919
vsa 10920
com™ 10921
##aw 10922
##ail 10923
251 10924
なのて 10925
count 10926
t2 10927
##ᅡ 10928
##een 10929
2700 10930
hop 10931
##gp 10932
vsc 10933
tree 10934
##eg 10935
##ose 10936
816 10937
285 10938
##ories 10939
##shop 10940
alphago 10941
v4 10942
1909 10943
simon 10944
##ᆼ 10945
fluke62max 10946
zip 10947
スホンサー 10948
##sta 10949
louis 10950
cr 10951
bas 10952
##～10 10953
bc 10954
##yer 10955
hadoop 10956
##ube 10957
##wi 10958
1906 10959
0755 10960
hola 10961
##low 10962
place 10963
centre 10964
5v 10965
d3 10966
##fer 10967
252 10968
##750 10969
##media 10970
281 10971
540 10972
0l 10973
exchange 10974
262 10975
series 10976
##ハー 10977
##san 10978
eb 10979
##bank 10980
##ｋ 10981
q3 10982
##nge 10983
##mail 10984
take 10985
##lp 10986
259 10987
1888 10988
client 10989
east 10990
cache 10991
event 10992
vincent 10993
##ールを 10994
きを 10995
##nse 10996
sui 10997
855 10998
adchoice 10999
##и 11000
##stry 11001
##なたの 11002
246 11003
##zone 11004
ga 11005
apps 11006
sea 11007
##ab 11008
248 11009
cisco 11010
##タ 11011
##rner 11012
kymco 11013
##care 11014
dha 11015
##pu 11016
##yi 11017
minkoff 11018
royal 11019
p1 11020
への 11021
annie 11022
269 11023
collection 11024
kpi 11025
playstation 11026
257 11027
になります 11028
866 11029
bh 11030
##bar 11031
queen 11032
505 11033
radio 11034
1904 11035
andy 11036
armani 11037
##xy 11038
manager 11039
iherb 11040
##ery 11041
##share 11042
spring 11043
raid 11044
johnson 11045
1908 11046
##ob 11047
volvo 11048
hall 11049
##ball 11050
v6 11051
our 11052
taylor 11053
##hk 11054
bi 11055
242 11056
##cp 11057
kate 11058
bo 11059
water 11060
technology 11061
##rie 11062
サイトは 11063
277 11064
##ona 11065
##sl 11066
hpv 11067
303 11068
gtx 11069
hip 11070
rdquo 11071
jayz 11072
stone 11073
##lex 11074
##rum 11075
namespace 11076
##やり 11077
620 11078
##ale 11079
##atic 11080
des 11081
##erson 11082
##ql 11083
##ves 11084
##type 11085
enter 11086
##この 11087
##てきます 11088
d2 11089
##168 11090
##mix 11091
##bian 11092
との 11093
a9 11094
jj 11095
ky 11096
##lc 11097
access 11098
movie 11099
##hc 11100
リストに 11101
tower 11102
##ration 11103
##mit 11104
ます 11105
##nch 11106
ua 11107
tel 11108
prefix 11109
##o2 11110
1907 11111
##point 11112
1901 11113
ott 11114
～10 11115
##http 11116
##ury 11117
baidu 11118
##ink 11119
member 11120
##logy 11121
bigbang 11122
nownews 11123
##js 11124
##shot 11125
##tb 11126
##こと 11127
247 11128
eba 11129
##tics 11130
##lus 11131
ける 11132
v5 11133
spark 11134
##ama 11135
there 11136
##ions 11137
god 11138
##lls 11139
##down 11140
hiv 11141
##ress 11142
burberry 11143
day2 11144
##kv 11145
◆◆ 11146
jeff 11147
related 11148
film 11149
edit 11150
joseph 11151
283 11152
##ark 11153
cx 11154
32gb 11155
order 11156
g9 11157
30000 11158
##ans 11159
##tty 11160
s5 11161
##bee 11162
かあります 11163
thread 11164
xr 11165
buy 11166
sh 11167
005 11168
land 11169
spotify 11170
mx 11171
##ari 11172
276 11173
##verse 11174
×email 11175
sf 11176
why 11177
##ことて 11178
244 11179
7headlines 11180
nego 11181
sunny 11182
dom 11183
exo 11184
401 11185
666 11186
positioning 11187
fit 11188
rgb 11189
##tton 11190
278 11191
kiss 11192
alexa 11193
adam 11194
lp 11195
みリストを 11196
##ｇ 11197
mp 11198
##ties 11199
##llow 11200
amy 11201
##du 11202
np 11203
002 11204
institute 11205
271 11206
##rth 11207
##lar 11208
2345 11209
590 11210
##des 11211
sidebar 11212
１５ 11213
imax 11214
site 11215
##cky 11216
##kit 11217
##ime 11218
##009 11219
season 11220
323 11221
##fun 11222
##ンター 11223
##ひ 11224
gogoro 11225
a7 11226
pu 11227
lily 11228
fire 11229
twd600 11230
##ッセーシを 11231
いて 11232
##vis 11233
30ml 11234
##cture 11235
##をお 11236
information 11237
##オ 11238
close 11239
friday 11240
##くれる 11241
yi 11242
nick 11243
てすか 11244
##tta 11245
##tel 11246
6500 11247
##lock 11248
cbd 11249
economy 11250
254 11251
かお 11252
267 11253
tinker 11254
double 11255
375 11256
8gb 11257
voice 11258
##app 11259
oops 11260
channel 11261
today 11262
985 11263
##right 11264
raw 11265
xyz 11266
##＋ 11267
jim 11268
edm 11269
##cent 11270
7500 11271
supreme 11272
814 11273
ds 11274
##its 11275
##asia 11276
dropbox 11277
##てすか 11278
##tti 11279
books 11280
272 11281
100ml 11282
##tle 11283
##ller 11284
##ken 11285
##more 11286
##boy 11287
sex 11288
309 11289
##dom 11290
t3 11291
##ider 11292
##なります 11293
##unch 11294
1903 11295
810 11296
feel 11297
5500 11298
##かった 11299
##put 11300
により 11301
s2 11302
mo 11303
##gh 11304
men 11305
ka 11306
amoled 11307
div 11308
##tr 11309
##n1 11310
port 11311
howard 11312
##tags 11313
ken 11314
dnf 11315
##nus 11316
adsense 11317
##а 11318
ide 11319
##へ 11320
buff 11321
thunder 11322
##town 11323
##ique 11324
has 11325
##body 11326
auto 11327
pin 11328
##erry 11329
tee 11330
てした 11331
295 11332
number 11333
##the 11334
##013 11335
object 11336
psp 11337
cool 11338
udnbkk 11339
16gb 11340
##mic 11341
miui 11342
##tro 11343
most 11344
r2 11345
##alk 11346
##nity 11347
1880 11348
±0 11349
##いました 11350
428 11351
s4 11352
law 11353
version 11354
##oa 11355
n1 11356
sgs 11357
docomo 11358
##tf 11359
##ack 11360
henry 11361
fc2 11362
##ded 11363
##sco 11364
##014 11365
##rite 11366
286 11367
0mm 11368
linkedin 11369
##ada 11370
##now 11371
wii 11372
##ndy 11373
ucbug 11374
##◎ 11375
sputniknews 11376
legalminer 11377
##ika 11378
##xp 11379
2gb 11380
##bu 11381
q10 11382
oo 11383
b6 11384
come 11385
##rman 11386
cheese 11387
ming 11388
maker 11389
##gm 11390
nikon 11391
##fig 11392
ppi 11393
kelly 11394
##ります 11395
jchere 11396
てきます 11397
ted 11398
md 11399
003 11400
fgo 11401
tech 11402
##tto 11403
dan 11404
soc 11405
##gl 11406
##len 11407
hair 11408
earth 11409
640 11410
521 11411
img 11412
##pper 11413
##a1 11414
##てきる 11415
##ロク 11416
acca 11417
##ition 11418
##ference 11419
suite 11420
##ig 11421
outlook 11422
##mond 11423
##cation 11424
398 11425
##pr 11426
279 11427
101vip 11428
358 11429
##999 11430
282 11431
64gb 11432
3800 11433
345 11434
airport 11435
##over 11436
284 11437
##おり 11438
jones 11439
##ith 11440
lab 11441
##su 11442
##いるのて 11443
co2 11444
town 11445
piece 11446
##llo 11447
no1 11448
vmware 11449
24h 11450
##qi 11451
focus 11452
reader 11453
##admin 11454
##ora 11455
tb 11456
false 11457
##log 11458
1898 11459
know 11460
lan 11461
838 11462
##ces 11463
f4 11464
##ume 11465
motel 11466
stop 11467
##oper 11468
na 11469
flickr 11470
netcomponents 11471
##af 11472
##─ 11473
pose 11474
williams 11475
local 11476
##ound 11477
##cg 11478
##site 11479
##iko 11480
いお 11481
274 11482
5m 11483
gsm 11484
con 11485
##ath 11486
1902 11487
friends 11488
##hip 11489
cell 11490
317 11491
##rey 11492
780 11493
cream 11494
##cks 11495
012 11496
##dp 11497
facebooktwitterpinterestgoogle 11498
sso 11499
324 11500
shtml 11501
song 11502
swiss 11503
##mw 11504
##キンク 11505
lumia 11506
xdd 11507
string 11508
tiffany 11509
522 11510
marc 11511
られた 11512
insee 11513
russell 11514
sc 11515
dell 11516
##ations 11517
ｏｋ 11518
camera 11519
289 11520
##vs 11521
##flow 11522
##late 11523
classic 11524
287 11525
##nter 11526
stay 11527
g1 11528
mtv 11529
512 11530
##ever 11531
##lab 11532
##nger 11533
qe 11534
sata 11535
ryan 11536
d1 11537
50ml 11538
cms 11539
##cing 11540
su 11541
292 11542
3300 11543
editor 11544
296 11545
##nap 11546
security 11547
sunday 11548
association 11549
##ens 11550
##700 11551
##bra 11552
acg 11553
##かり 11554
sofascore 11555
とは 11556
mkv 11557
##ign 11558
jonathan 11559
gary 11560
build 11561
labels 11562
##oto 11563
tesla 11564
moba 11565
qi 11566
gohappy 11567
general 11568
ajax 11569
1024 11570
##かる 11571
サイト 11572
society 11573
##test 11574
##urs 11575
wps 11576
fedora 11577
##ich 11578
mozilla 11579
328 11580
##480 11581
##dr 11582
usa 11583
urn 11584
##lina 11585
##ｒ 11586
grace 11587
##die 11588
##try 11589
##ader 11590
1250 11591
##なり 11592
elle 11593
570 11594
##chen 11595
##ᆯ 11596
price 11597
##ten 11598
uhz 11599
##ough 11600
eq 11601
##hen 11602
states 11603
push 11604
session 11605
balance 11606
wow 11607
506 11608
##cus 11609
##py 11610
when 11611
##ward 11612
##ep 11613
34e 11614
wong 11615
library 11616
prada 11617
##サイト 11618
##cle 11619
running 11620
##ree 11621
313 11622
ck 11623
date 11624
q4 11625
##ctive 11626
##ool 11627
##＞ 11628
mk 11629
##ira 11630
##163 11631
388 11632
die 11633
secret 11634
rq 11635
dota 11636
buffet 11637
は１ヶ 11638
e6 11639
##ez 11640
pan 11641
368 11642
ha 11643
##card 11644
##cha 11645
2a 11646
##さ 11647
alan 11648
day3 11649
eye 11650
f3 11651
##end 11652
france 11653
keep 11654
adi 11655
rna 11656
tvbs 11657
##ala 11658
solo 11659
nova 11660
##え 11661
##tail 11662
##ょう 11663
support 11664
##ries 11665
##なる 11666
##ved 11667
base 11668
copy 11669
iis 11670
fps 11671
##ways 11672
hero 11673
hgih 11674
profile 11675
fish 11676
mu 11677
ssh 11678
entertainment 11679
chang 11680
##wd 11681
click 11682
cake 11683
##ond 11684
pre 11685
##tom 11686
kic 11687
pixel 11688
##ov 11689
##fl 11690
product 11691
6a 11692
##pd 11693
dear 11694
##gate 11695
es 11696
yumi 11697
audio 11698
##² 11699
##sky 11700
echo 11701
bin 11702
where 11703
##ture 11704
329 11705
##ape 11706
find 11707
sap 11708
isis 11709
##なと 11710
nand 11711
##101 11712
##load 11713
##ream 11714
band 11715
a6 11716
525 11717
never 11718
##post 11719
festival 11720
50cm 11721
##we 11722
555 11723
guide 11724
314 11725
zenfone 11726
##ike 11727
335 11728
gd 11729
forum 11730
jessica 11731
strong 11732
alexander 11733
##ould 11734
software 11735
allen 11736
##ious 11737
program 11738
360° 11739
else 11740
lohasthree 11741
##gar 11742
することかてきます 11743
please 11744
##れます 11745
rc 11746
##ggle 11747
##ric 11748
bim 11749
50000 11750
##own 11751
eclipse 11752
355 11753
brian 11754
3ds 11755
##side 11756
061 11757
361 11758
##other 11759
##ける 11760
##tech 11761
##ator 11762
485 11763
engine 11764
##ged 11765
##ｔ 11766
plaza 11767
##fit 11768
cia 11769
ngo 11770
westbrook 11771
shi 11772
tbs 11773
50mm 11774
##みませんか 11775
sci 11776
291 11777
reuters 11778
##ily 11779
contextlink 11780
##hn 11781
af 11782
##cil 11783
bridge 11784
very 11785
##cel 11786
1890 11787
cambridge 11788
##ize 11789
15g 11790
##aid 11791
##data 11792
790 11793
frm 11794
##head 11795
award 11796
butler 11797
##sun 11798
meta 11799
##mar 11800
america 11801
ps3 11802
puma 11803
pmid 11804
##すか 11805
lc 11806
670 11807
kitchen 11808
##lic 11809
オーフン5 11810
きなしソフトサーヒス 11811
そして 11812
day1 11813
future 11814
★★★★ 11815
##text 11816
##page 11817
##rris 11818
pm1 11819
##ket 11820
fans 11821
##っています 11822
1001 11823
christian 11824
bot 11825
kids 11826
trackback 11827
##hai 11828
c3 11829
display 11830
##hl 11831
n2 11832
1896 11833
idea 11834
さんも 11835
##sent 11836
airmail 11837
##ug 11838
##men 11839
pwm 11840
けます 11841
028 11842
##lution 11843
369 11844
852 11845
awards 11846
schemas 11847
354 11848
asics 11849
wikipedia 11850
font 11851
##tional 11852
##vy 11853
c2 11854
293 11855
##れている 11856
##dget 11857
##ein 11858
っている 11859
contact 11860
pepper 11861
スキル 11862
339 11863
##～5 11864
294 11865
##uel 11866
##ument 11867
730 11868
##hang 11869
みてす 11870
q5 11871
##sue 11872
rain 11873
##ndi 11874
wei 11875
swatch 11876
##cept 11877
わせ 11878
331 11879
popular 11880
##ste 11881
##tag 11882
p2 11883
501 11884
trc 11885
1899 11886
##west 11887
##live 11888
justin 11889
honda 11890
ping 11891
messenger 11892
##rap 11893
v9 11894
543 11895
##とは 11896
unity 11897
appqq 11898
はすへて 11899
025 11900
leo 11901
##tone 11902
##テ 11903
##ass 11904
uniqlo 11905
##010 11906
502 11907
her 11908
jane 11909
memory 11910
moneydj 11911
##tical 11912
human 11913
12306 11914
していると 11915
##m2 11916
coc 11917
miacare 11918
##mn 11919
tmt 11920
##core 11921
vim 11922
kk 11923
##may 11924
fan 11925
target 11926
use 11927
too 11928
338 11929
435 11930
2050 11931
867 11932
737 11933
fast 11934
##2c 11935
services 11936
##ope 11937
omega 11938
energy 11939
##わ 11940
pinkoi 11941
1a 11942
##なから 11943
##rain 11944
jackson 11945
##ement 11946
##シャンルの 11947
374 11948
366 11949
そんな 11950
p9 11951
rd 11952
##ᆨ 11953
1111 11954
##tier 11955
##vic 11956
zone 11957
##│ 11958
385 11959
690 11960
dl 11961
isofix 11962
cpa 11963
m4 11964
322 11965
kimi 11966
めて 11967
davis 11968
##lay 11969
lulu 11970
##uck 11971
050 11972
weeks 11973
qs 11974
##hop 11975
920 11976
##ｎ 11977
ae 11978
##ear 11979
～5 11980
eia 11981
405 11982
##fly 11983
korea 11984
jpeg 11985
boost 11986
##ship 11987
small 11988
##リア 11989
1860 11990
eur 11991
297 11992
425 11993
valley 11994
##iel 11995
simple 11996
##ude 11997
rn 11998
k2 11999
##ena 12000
されます 12001
non 12002
patrick 12003
しているから 12004
##ナー 12005
feed 12006
5757 12007
30g 12008
process 12009
well 12010
qqmei 12011
##thing 12012
they 12013
aws 12014
lu 12015
pink 12016
##ters 12017
##kin 12018
または 12019
board 12020
##vertisement 12021
wine 12022
##ien 12023
unicode 12024
##dge 12025
r1 12026
359 12027
##tant 12028
いを 12029
##twitter 12030
##3c 12031
cool1 12032
される 12033
##れて 12034
##ｌ 12035
isp 12036
##012 12037
standard 12038
45㎡2 12039
402 12040
##150 12041
matt 12042
##fu 12043
326 12044
##iner 12045
googlemsn 12046
pixnetfacebookyahoo 12047
##ラン 12048
x7 12049
886 12050
##uce 12051
メーカー 12052
sao 12053
##ev 12054
##きました 12055
##file 12056
9678 12057
403 12058
xddd 12059
shirt 12060
6l 12061
##rio 12062
##hat 12063
3mm 12064
givenchy 12065
ya 12066
bang 12067
##lio 12068
monday 12069
crystal 12070
ロクイン 12071
##abc 12072
336 12073
head 12074
890 12075
ubuntuforumwikilinuxpastechat 12076
##vc 12077
##～20 12078
##rity 12079
cnc 12080
7866 12081
ipv6 12082
null 12083
1897 12084
##ost 12085
yang 12086
imsean 12087
tiger 12088
##fet 12089
##ンス 12090
352 12091
##＝ 12092
dji 12093
327 12094
ji 12095
maria 12096
##come 12097
##んて 12098
foundation 12099
3100 12100
##beth 12101
##なった 12102
1m 12103
601 12104
active 12105
##aft 12106
##don 12107
3p 12108
sr 12109
349 12110
emma 12111
##khz 12112
living 12113
415 12114
353 12115
1889 12116
341 12117
709 12118
457 12119
sas 12120
x6 12121
##face 12122
pptv 12123
x4 12124
##mate 12125
han 12126
sophie 12127
##jing 12128
337 12129
fifa 12130
##mand 12131
other 12132
sale 12133
inwedding 12134
##gn 12135
てきちゃいます 12136
##mmy 12137
##pmlast 12138
bad 12139
nana 12140
nbc 12141
してみてくたさいね 12142
なとはお 12143
##wu 12144
##かあります 12145
##あ 12146
note7 12147
single 12148
##340 12149
せからこ 12150
してくたさい♪この 12151
しにはとんとんワークケートを 12152
するとあなたにもっとマッチした 12153
ならワークケートへ 12154
もみつかっちゃうかも 12155
ワークケートの 12156
##bel 12157
window 12158
##dio 12159
##ht 12160
union 12161
age 12162
382 12163
１４ 12164
##ivity 12165
##ｙ 12166
コメント 12167
domain 12168
neo 12169
##isa 12170
##lter 12171
5k 12172
f5 12173
steven 12174
##cts 12175
powerpoint 12176
tft 12177
self 12178
g2 12179
ft 12180
##テル 12181
zol 12182
##act 12183
mwc 12184
381 12185
343 12186
もう 12187
nbapop 12188
408 12189
てある 12190
eds 12191
ace 12192
##room 12193
previous 12194
author 12195
tomtom 12196
il 12197
##ets 12198
hu 12199
financial 12200
☆☆☆ 12201
っています 12202
bp 12203
5t 12204
chi 12205
1gb 12206
##hg 12207
fairmont 12208
cross 12209
008 12210
gay 12211
h2 12212
function 12213
##けて 12214
356 12215
also 12216
1b 12217
625 12218
##ータ 12219
##raph 12220
1894 12221
3～5 12222
##ils 12223
i3 12224
334 12225
avenue 12226
##host 12227
による 12228
##bon 12229
##tsu 12230
message 12231
navigation 12232
50g 12233
fintech 12234
h6 12235
##ことを 12236
8cm 12237
##ject 12238
##vas 12239
##firm 12240
credit 12241
##wf 12242
xxxx 12243
form 12244
##nor 12245
##space 12246
huawei 12247
plan 12248
json 12249
sbl 12250
##dc 12251
machine 12252
921 12253
392 12254
wish 12255
##120 12256
##sol 12257
windows7 12258
edward 12259
##ために 12260
development 12261
washington 12262
##nsis 12263
lo 12264
818 12265
##sio 12266
##ym 12267
##bor 12268
planet 12269
##～8 12270
##wt 12271
ieee 12272
gpa 12273
##めて 12274
camp 12275
ann 12276
gm 12277
##tw 12278
##oka 12279
connect 12280
##rss 12281
##work 12282
##atus 12283
wall 12284
chicken 12285
soul 12286
2mm 12287
##times 12288
fa 12289
##ather 12290
##cord 12291
009 12292
##eep 12293
hitachi 12294
gui 12295
harry 12296
##pan 12297
e1 12298
disney 12299
##press 12300
##ーション 12301
wind 12302
386 12303
frigidaire 12304
##tl 12305
liu 12306
hsu 12307
332 12308
basic 12309
von 12310
ev 12311
いた 12312
てきる 12313
スホンサーサイト 12314
learning 12315
##ull 12316
expedia 12317
archives 12318
change 12319
##wei 12320
santa 12321
cut 12322
ins 12323
6gb 12324
turbo 12325
brand 12326
cf1 12327
508 12328
004 12329
return 12330
747 12331
##rip 12332
h1 12333
##nis 12334
##をこ 12335
128gb 12336
##にお 12337
3t 12338
application 12339
しており 12340
emc 12341
rx 12342
##oon 12343
384 12344
quick 12345
412 12346
15058 12347
wilson 12348
wing 12349
chapter 12350
##bug 12351
beyond 12352
##cms 12353
##dar 12354
##oh 12355
zoom 12356
e2 12357
trip 12358
sb 12359
##nba 12360
rcep 12361
342 12362
aspx 12363
ci 12364
080 12365
gc 12366
gnu 12367
める 12368
##count 12369
advanced 12370
dance 12371
dv 12372
##url 12373
##ging 12374
367 12375
8591 12376
am09 12377
shadow 12378
battle 12379
346 12380
##ｉ 12381
##cia 12382
##という 12383
emily 12384
##のてす 12385
##tation 12386
host 12387
ff 12388
techorz 12389
sars 12390
##mini 12391
##mporary 12392
##ering 12393
nc 12394
4200 12395
798 12396
##next 12397
cma 12398
##mbps 12399
##gas 12400
##ift 12401
##dot 12402
##ィ 12403
455 12404
##～17 12405
amana 12406
##りの 12407
426 12408
##ros 12409
ir 12410
00㎡1 12411
##eet 12412
##ible 12413
##↓ 12414
710 12415
ˋ▽ˊ 12416
##aka 12417
dcs 12418
iq 12419
##ｖ 12420
l1 12421
##lor 12422
maggie 12423
##011 12424
##iu 12425
588 12426
##～1 12427
830 12428
##gt 12429
1tb 12430
articles 12431
create 12432
##burg 12433
##iki 12434
database 12435
fantasy 12436
##rex 12437
##cam 12438
dlc 12439
dean 12440
##you 12441
hard 12442
path 12443
gaming 12444
victoria 12445
maps 12446
cb 12447
##lee 12448
##itor 12449
overchicstoretvhome 12450
systems 12451
##xt 12452
416 12453
p3 12454
sarah 12455
760 12456
##nan 12457
407 12458
486 12459
x9 12460
install 12461
second 12462
626 12463
##ann 12464
##ph 12465
##rcle 12466
##nic 12467
860 12468
##nar 12469
ec 12470
##とう 12471
768 12472
metro 12473
chocolate 12474
##rian 12475
～4 12476
##table 12477
##しています 12478
skin 12479
##sn 12480
395 12481
mountain 12482
##0mm 12483
inparadise 12484
6m 12485
7x24 12486
ib 12487
4800 12488
##jia 12489
eeworld 12490
creative 12491
g5 12492
g3 12493
357 12494
parker 12495
ecfa 12496
village 12497
からの 12498
18000 12499
sylvia 12500
サーヒス 12501
hbl 12502
##ques 12503
##onsored 12504
##x2 12505
##きます 12506
##v4 12507
##tein 12508
ie6 12509
383 12510
##stack 12511
389 12512
ver 12513
##ads 12514
##baby 12515
sound 12516
bbe 12517
##110 12518
##lone 12519
##uid 12520
ads 12521
022 12522
gundam 12523
351 12524
thinkpad 12525
006 12526
scrum 12527
match 12528
##ave 12529
mems 12530
##470 12531
##oy 12532
##なりました 12533
##talk 12534
glass 12535
lamigo 12536
span 12537
##eme 12538
job 12539
##a5 12540
jay 12541
wade 12542
kde 12543
498 12544
##lace 12545
ocean 12546
tvg 12547
##covery 12548
##r3 12549
##ners 12550
##rea 12551
junior 12552
think 12553
##aine 12554
cover 12555
##ision 12556
##sia 12557
↓↓ 12558
##bow 12559
msi 12560
413 12561
458 12562
406 12563
##love 12564
711 12565
801 12566
soft 12567
z2 12568
##pl 12569
456 12570
1840 12571
mobil 12572
mind 12573
##uy 12574
427 12575
nginx 12576
##oi 12577
めた 12578
##rr 12579
6221 12580
##mple 12581
##sson 12582
##ーシてす 12583
371 12584
##nts 12585
91tv 12586
comhd 12587
crv3000 12588
##uard 12589
1868 12590
397 12591
deep 12592
lost 12593
field 12594
gallery 12595
##bia 12596
rate 12597
spf 12598
redis 12599
traction 12600
930 12601
icloud 12602
011 12603
なら 12604
fe 12605
jose 12606
372 12607
##tory 12608
into 12609
sohu 12610
fx 12611
899 12612
379 12613
kicstart2 12614
##hia 12615
すく 12616
##～3 12617
##sit 12618
ra 12619
２４ 12620
##walk 12621
##xure 12622
500g 12623
##pact 12624
pacific 12625
xa 12626
natural 12627
carlo 12628
##250 12629
##walker 12630
1850 12631
##can 12632
cto 12633
gigi 12634
516 12635
##サー 12636
pen 12637
##hoo 12638
ob 12639
matlab 12640
##ｂ 12641
##yy 12642
13913459 12643
##iti 12644
mango 12645
##bbs 12646
sense 12647
c5 12648
oxford 12649
##ニア 12650
walker 12651
jennifer 12652
##ola 12653
course 12654
##bre 12655
701 12656
##pus 12657
##rder 12658
lucky 12659
075 12660
##ぁ 12661
ivy 12662
なお 12663
##nia 12664
sotheby 12665
side 12666
##ugh 12667
joy 12668
##orage 12669
##ush 12670
##bat 12671
##dt 12672
364 12673
r9 12674
##2d 12675
##gio 12676
511 12677
country 12678
wear 12679
##lax 12680
##～7 12681
##moon 12682
393 12683
seven 12684
study 12685
411 12686
348 12687
lonzo 12688
8k 12689
##ェ 12690
evolution 12691
##イフ 12692
##kk 12693
gs 12694
kd 12695
##レス 12696
arduino 12697
344 12698
b12 12699
##lux 12700
arpg 12701
##rdon 12702
cook 12703
##x5 12704
dark 12705
five 12706
##als 12707
##ida 12708
とても 12709
sign 12710
362 12711
##ちの 12712
something 12713
20mm 12714
##nda 12715
387 12716
##posted 12717
fresh 12718
tf 12719
1870 12720
422 12721
cam 12722
##mine 12723
##skip 12724
##form 12725
##ssion 12726
education 12727
394 12728
##tee 12729
dyson 12730
stage 12731
##jie 12732
want 12733
##night 12734
epson 12735
pack 12736
あります 12737
##ppy 12738
テリヘル 12739
##█ 12740
wd 12741
##eh 12742
##rence 12743
left 12744
##lvin 12745
golden 12746
mhz 12747
discovery 12748
##trix 12749
##n2 12750
loft 12751
##uch 12752
##dra 12753
##sse 12754
speed 12755
～1 12756
1mdb 12757
sorry 12758
welcome 12759
##urn 12760
wave 12761
gaga 12762
##lmer 12763
teddy 12764
##160 12765
トラックハック 12766
せよ 12767
611 12768
##f2016 12769
378 12770
rp 12771
##sha 12772
rar 12773
##あなたに 12774
##きた 12775
840 12776
holiday 12777
##ュー 12778
373 12779
074 12780
##vg 12781
##nos 12782
##rail 12783
gartner 12784
gi 12785
6p 12786
##dium 12787
kit 12788
488 12789
b3 12790
eco 12791
##ろう 12792
20g 12793
sean 12794
##stone 12795
autocad 12796
nu 12797
##np 12798
f16 12799
write 12800
029 12801
m5 12802
##ias 12803
images 12804
atp 12805
##dk 12806
fsm 12807
504 12808
1350 12809
ve 12810
52kb 12811
##xxx 12812
##のに 12813
##cake 12814
414 12815
unit 12816
lim 12817
ru 12818
1v 12819
##ification 12820
published 12821
angela 12822
16g 12823
analytics 12824
ak 12825
##ｑ 12826
##nel 12827
gmt 12828
##icon 12829
again 12830
##₂ 12831
##bby 12832
ios11 12833
445 12834
かこさいます 12835
waze 12836
いてす 12837
##ハ 12838
9985 12839
##ust 12840
##ティー 12841
framework 12842
##007 12843
iptv 12844
delete 12845
52sykb 12846
cl 12847
wwdc 12848
027 12849
30cm 12850
##fw 12851
##ての 12852
1389 12853
##xon 12854
brandt 12855
##ses 12856
##dragon 12857
tc 12858
vetements 12859
anne 12860
monte 12861
modern 12862
official 12863
##へて 12864
##ere 12865
##nne 12866
##oud 12867
もちろん 12868
５０ 12869
etnews 12870
##a2 12871
##graphy 12872
421 12873
863 12874
##ちゃん 12875
444 12876
##rtex 12877
##てお 12878
l2 12879
##gma 12880
mount 12881
ccd 12882
たと 12883
archive 12884
morning 12885
tan 12886
ddos 12887
e7 12888
##ホ 12889
day4 12890
##ウ 12891
gis 12892
453 12893
its 12894
495 12895
factory 12896
bruce 12897
pg 12898
##ito 12899
ってくたさい 12900
guest 12901
cdma 12902
##lling 12903
536 12904
n3 12905
しかし 12906
3～4 12907
mega 12908
eyes 12909
ro 12910
１３ 12911
women 12912
dac 12913
church 12914
##jun 12915
singapore 12916
##facebook 12917
6991 12918
starbucks 12919
##tos 12920
##stin 12921
##shine 12922
zen 12923
##mu 12924
tina 12925
20℃ 12926
1893 12927
##たけて 12928
503 12929
465 12930
request 12931
##gence 12932
qt 12933
##っ 12934
1886 12935
347 12936
363 12937
q7 12938
##zzi 12939
diary 12940
##tore 12941
409 12942
##ead 12943
468 12944
cst 12945
##osa 12946
canada 12947
agent 12948
va 12949
##jiang 12950
##ちは 12951
##ーク 12952
##lam 12953
sg 12954
##nix 12955
##sday 12956
##よって 12957
g6 12958
##master 12959
bing 12960
##zl 12961
charlie 12962
１６ 12963
8mm 12964
nb40 12965
##ーン 12966
thai 12967
##ルフ 12968
ln284ct 12969
##itz 12970
##2f 12971
bonnie 12972
##food 12973
##lent 12974
originals 12975
##stro 12976
##lts 12977
418 12978
∟∣ 12979
##bscribe 12980
children 12981
ntd 12982
yesstyle 12983
##かも 12984
hmv 12985
##tment 12986
d5 12987
2cm 12988
arts 12989
sms 12990
##pn 12991
##я 12992
##いい 12993
topios9 12994
539 12995
lifestyle 12996
virtual 12997
##ague 12998
xz 12999
##deo 13000
muji 13001
024 13002
unt 13003
##nnis 13004
##ᅩ 13005
faq1 13006
1884 13007
396 13008
##ette 13009
fly 13010
64㎡ 13011
はしめまして 13012
441 13013
curry 13014
##pop 13015
のこ 13016
release 13017
##← 13018
##◆◆ 13019
##cast 13020
073 13021
ありな 13022
500ml 13023
##ews 13024
5c 13025
##stle 13026
ios7 13027
##ima 13028
787 13029
dog 13030
lenovo 13031
##r4 13032
roger 13033
013 13034
cbs 13035
vornado 13036
100m 13037
417 13038
##desk 13039
##クok 13040
##ald 13041
1867 13042
9595 13043
2900 13044
##van 13045
oil 13046
##ｘ 13047
some 13048
break 13049
common 13050
##jy 13051
##lines 13052
g7 13053
twice 13054
419 13055
ella 13056
nano 13057
belle 13058
にこ 13059
##mes 13060
##self 13061
##note 13062
jb 13063
##ことかてきます 13064
benz 13065
##との 13066
##ova 13067
451 13068
save 13069
##wing 13070
##ますのて 13071
kai 13072
りは 13073
##hua 13074
##rect 13075
rainer 13076
##unge 13077
448 13078
##0m 13079
adsl 13080
##かな 13081
guestname 13082
##uma 13083
##kins 13084
##zu 13085
tokichoi 13086
##price 13087
county 13088
##med 13089
##mus 13090
rmk 13091
391 13092
address 13093
vm 13094
えて 13095
openload 13096
##group 13097
##hin 13098
##iginal 13099
amg 13100
urban 13101
##oz 13102
jobs 13103
emi 13104
##public 13105
beautiful 13106
##sch 13107
album 13108
##dden 13109
##bell 13110
jerry 13111
works 13112
hostel 13113
miller 13114
##drive 13115
##rmin 13116
##１０ 13117
376 13118
boot 13119
828 13120
##370 13121
##fx 13122
##cm～ 13123
1885 13124
##nome 13125
##ctionary 13126
##oman 13127
##lish 13128
##cr 13129
##hm 13130
433 13131
##how 13132
432 13133
francis 13134
xi 13135
c919 13136
b5 13137
evernote 13138
##uc 13139
vga 13140
##3000 13141
coupe 13142
##urg 13143
##cca 13144
##uality 13145
019 13146
6g 13147
れる 13148
multi 13149
##また 13150
##ett 13151
em 13152
hey 13153
##ani 13154
##tax 13155
##rma 13156
inside 13157
than 13158
740 13159
leonnhurt 13160
##jin 13161
ict 13162
れた 13163
bird 13164
notes 13165
200mm 13166
くの 13167
##dical 13168
##lli 13169
result 13170
442 13171
iu 13172
ee 13173
438 13174
smap 13175
gopro 13176
##last 13177
yin 13178
pure 13179
998 13180
32g 13181
けた 13182
5kg 13183
##dan 13184
##rame 13185
mama 13186
##oot 13187
bean 13188
marketing 13189
##hur 13190
2l 13191
bella 13192
sync 13193
xuite 13194
##ground 13195
515 13196
discuz 13197
##getrelax 13198
##ince 13199
##bay 13200
##5s 13201
cj 13202
##イス 13203
gmat 13204
apt 13205
##pass 13206
jing 13207
##rix 13208
c4 13209
rich 13210
##とても 13211
niusnews 13212
##ello 13213
bag 13214
770 13215
##eting 13216
##mobile 13217
１８ 13218
culture 13219
015 13220
##のてすか 13221
377 13222
1020 13223
area 13224
##ience 13225
616 13226
details 13227
gp 13228
universal 13229
silver 13230
dit 13231
はお 13232
private 13233
ddd 13234
u11 13235
kanshu 13236
##ified 13237
fung 13238
##nny 13239
dx 13240
##520 13241
tai 13242
475 13243
023 13244
##fr 13245
##lean 13246
3s 13247
##pin 13248
429 13249
##rin 13250
25000 13251
ly 13252
rick 13253
##bility 13254
usb3 13255
banner 13256
##baru 13257
##gion 13258
metal 13259
dt 13260
vdf 13261
1871 13262
karl 13263
qualcomm 13264
bear 13265
1010 13266
oldid 13267
ian 13268
jo 13269
##tors 13270
population 13271
##ernel 13272
1882 13273
mmorpg 13274
##mv 13275
##bike 13276
603 13277
##© 13278
ww 13279
friend 13280
##ager 13281
exhibition 13282
##del 13283
##pods 13284
fpx 13285
structure 13286
##free 13287
##tings 13288
kl 13289
##rley 13290
##copyright 13291
##mma 13292
california 13293
3400 13294
orange 13295
yoga 13296
4l 13297
canmake 13298
honey 13299
##anda 13300
##コメント 13301
595 13302
nikkie 13303
##ルハイト 13304
dhl 13305
publishing 13306
##mall 13307
##gnet 13308
20cm 13309
513 13310
##クセス 13311
##┅ 13312
e88 13313
970 13314
##dog 13315
fishbase 13316
##! 13317
##" 13318
### 13319
##$ 13320
##% 13321
##& 13322
##' 13323
##( 13324
##) 13325
##* 13326
##+ 13327
##, 13328
##- 13329
##. 13330
##/ 13331
##: 13332
##; 13333
##< 13334
##= 13335
##> 13336
##? 13337
##@ 13338
##[ 13339
##\ 13340
##] 13341
##^ 13342
##_ 13343
##{ 13344
##| 13345
##} 13346
##~ 13347
##£ 13348
##¤ 13349
##¥ 13350
##§ 13351
##« 13352
##± 13353
##³ 13354
##µ 13355
##· 13356
##¹ 13357
##º 13358
##» 13359
##¼ 13360
##ß 13361
##æ 13362
##÷ 13363
##ø 13364
##đ 13365
##ŋ 13366
##ɔ 13367
##ə 13368
##ɡ 13369
##ʰ 13370
##ˇ 13371
##ˈ 13372
##ˊ 13373
##ˋ 13374
##ˍ 13375
##ː 13376
##˙ 13377
##˚ 13378
##ˢ 13379
##α 13380
##β 13381
##γ 13382
##δ 13383
##ε 13384
##η 13385
##θ 13386
##ι 13387
##κ 13388
##λ 13389
##μ 13390
##ν 13391
##ο 13392
##π 13393
##ρ 13394
##ς 13395
##σ 13396
##τ 13397
##υ 13398
##φ 13399
##χ 13400
##ψ 13401
##б 13402
##в 13403
##г 13404
##д 13405
##е 13406
##ж 13407
##з 13408
##к 13409
##л 13410
##м 13411
##н 13412
##о 13413
##п 13414
##р 13415
##с 13416
##т 13417
##у 13418
##ф 13419
##х 13420
##ц 13421
##ч 13422
##ш 13423
##ы 13424
##ь 13425
##і 13426
##ا 13427
##ب 13428
##ة 13429
##ت 13430
##د 13431
##ر 13432
##س 13433
##ع 13434
##ل 13435
##م 13436
##ن 13437
##ه 13438
##و 13439
##ي 13440
##۩ 13441
##ก 13442
##ง 13443
##น 13444
##ม 13445
##ย 13446
##ร 13447
##อ 13448
##า 13449
##เ 13450
##๑ 13451
##་ 13452
##ღ 13453
##ᄀ 13454
##ᄁ 13455
##ᄂ 13456
##ᄃ 13457
##ᄅ 13458
##ᄆ 13459
##ᄇ 13460
##ᄈ 13461
##ᄉ 13462
##ᄋ 13463
##ᄌ 13464
##ᄎ 13465
##ᄏ 13466
##ᄐ 13467
##ᄑ 13468
##ᄒ 13469
##ᅢ 13470
##ᅣ 13471
##ᅥ 13472
##ᅦ 13473
##ᅧ 13474
##ᅨ 13475
##ᅪ 13476
##ᅬ 13477
##ᅭ 13478
##ᅮ 13479
##ᅯ 13480
##ᅲ 13481
##ᅳ 13482
##ᅴ 13483
##ᆷ 13484
##ᆸ 13485
##ᆺ 13486
##ᆻ 13487
##ᗜ 13488
##ᵃ 13489
##ᵉ 13490
##ᵍ 13491
##ᵏ 13492
##ᵐ 13493
##ᵒ 13494
##ᵘ 13495
##‖ 13496
##„ 13497
##† 13498
##• 13499
##‥ 13500
##‧ 13501
##  13502
##‰ 13503
##′ 13504
##″ 13505
##‹ 13506
##› 13507
##※ 13508
##‿ 13509
##⁄ 13510
##ⁱ 13511
##⁺ 13512
##ⁿ 13513
##₁ 13514
##₃ 13515
##₄ 13516
##€ 13517
##№ 13518
##ⅰ 13519
##ⅱ 13520
##ⅲ 13521
##ⅳ 13522
##ⅴ 13523
##↔ 13524
##↗ 13525
##↘ 13526
##⇒ 13527
##∀ 13528
##− 13529
##∕ 13530
##∙ 13531
##√ 13532
##∞ 13533
##∟ 13534
##∠ 13535
##∣ 13536
##∩ 13537
##∮ 13538
##∶ 13539
##∼ 13540
##∽ 13541
##≈ 13542
##≒ 13543
##≡ 13544
##≤ 13545
##≥ 13546
##≦ 13547
##≧ 13548
##≪ 13549
##≫ 13550
##⊙ 13551
##⋅ 13552
##⋈ 13553
##⋯ 13554
##⌒ 13555
##① 13556
##② 13557
##③ 13558
##④ 13559
##⑤ 13560
##⑥ 13561
##⑦ 13562
##⑧ 13563
##⑨ 13564
##⑩ 13565
##⑴ 13566
##⑵ 13567
##⑶ 13568
##⑷ 13569
##⑸ 13570
##⒈ 13571
##⒉ 13572
##⒊ 13573
##⒋ 13574
##ⓒ 13575
##ⓔ 13576
##ⓘ 13577
##━ 13578
##┃ 13579
##┆ 13580
##┊ 13581
##┌ 13582
##└ 13583
##├ 13584
##┣ 13585
##═ 13586
##║ 13587
##╚ 13588
##╞ 13589
##╠ 13590
##╭ 13591
##╮ 13592
##╯ 13593
##╰ 13594
##╱ 13595
##╳ 13596
##▂ 13597
##▃ 13598
##▅ 13599
##▇ 13600
##▉ 13601
##▋ 13602
##▌ 13603
##▍ 13604
##▎ 13605
##□ 13606
##▪ 13607
##▫ 13608
##▬ 13609
##△ 13610
##▶ 13611
##► 13612
##▽ 13613
##◇ 13614
##◕ 13615
##◠ 13616
##◢ 13617
##◤ 13618
##☀ 13619
##☕ 13620
##☞ 13621
##☺ 13622
##☼ 13623
##♀ 13624
##♂ 13625
##♠ 13626
##♡ 13627
##♣ 13628
##♦ 13629
##♫ 13630
##♬ 13631
##✈ 13632
##✔ 13633
##✕ 13634
##✖ 13635
##✦ 13636
##✨ 13637
##✪ 13638
##✰ 13639
##✿ 13640
##❀ 13641
##➜ 13642
##➤ 13643
##⦿ 13644
##、 13645
##。 13646
##〃 13647
##々 13648
##〈 13650
##〉 13651
##《 13652
##》 13653
##「 13654
##」 13655
##『 13656
##』 13657
##【 13658
##】 13659
##〓 13660
##〔 13661
##〕 13662
##〖 13663
##〗 13664
##〜 13665
##〝 13666
##〞 13667
##ぃ 13668
##ぇ 13669
##ぬ 13670
##ふ 13671
##ほ 13672
##む 13673
##ゃ 13674
##ゅ 13675
##ゆ 13676
##ょ 13677
##゜ 13678
##ゝ 13679
##ァ 13680
##ゥ 13681
##エ 13682
##ォ 13683
##ケ 13684
##サ 13685
##セ 13686
##ソ 13687
##ッ 13688
##ニ 13689
##ヌ 13690
##ネ 13691
##ノ 13692
##ヘ 13693
##モ 13694
##ャ 13695
##ヤ 13696
##ュ 13697
##ユ 13698
##ョ 13699
##ヨ 13700
##ワ 13701
##ヲ 13702
##・ 13703
##ヽ 13704
##ㄅ 13705
##ㄆ 13706
##ㄇ 13707
##ㄉ 13708
##ㄋ 13709
##ㄌ 13710
##ㄍ 13711
##ㄎ 13712
##ㄏ 13713
##ㄒ 13714
##ㄚ 13715
##ㄛ 13716
##ㄞ 13717
##ㄟ 13718
##ㄢ 13719
##ㄤ 13720
##ㄥ 13721
##ㄧ 13722
##ㄨ 13723
##ㆍ 13724
##㈦ 13725
##㊣ 13726
##︰ 21049
##︱ 21050
##︶ 21051
##︿ 21052
##﹁ 21053
##﹂ 21054
##﹍ 21055
##﹏ 21056
##﹐ 21057
##﹑ 21058
##﹒ 21059
##﹔ 21060
##﹕ 21061
##﹖ 21062
##﹗ 21063
##﹙ 21064
##﹚ 21065
##﹝ 21066
##﹞ 21067
##﹡ 21068
##﹣ 21069
##！ 21070
##＂ 21071
##＃ 21072
##＄ 21073
##％ 21074
##＆ 21075
##＇ 21076
##（ 21077
##） 21078
##＊ 21079
##， 21080
##－ 21081
##． 21082
##／ 21083
##： 21084
##； 21085
##＜ 21086
##？ 21087
##＠ 21088
##［ 21089
##＼ 21090
##］ 21091
##＾ 21092
##＿ 21093
##｀ 21094
##ｆ 21095
##ｈ 21096
##ｊ 21097
##ｕ 21098
##ｗ 21099
##ｚ 21100
##｛ 21101
##｝ 21102
##｡ 21103
##｢ 21104
##｣ 21105
##､ 21106
##･ 21107
##ｯ 21108
##ｰ 21109
##ｲ 21110
##ｸ 21111
##ｼ 21112
##ｽ 21113
##ﾄ 21114
##ﾉ 21115
##ﾌ 21116
##ﾗ 21117
##ﾙ 21118
##ﾝ 21119
##ﾞ 21120
##ﾟ 21121
##￣ 21122
##￥ 21123
##👍 21124
##🔥 21125
##😂 21126
##😎 21127
